{
  "version": "1.0",
  "truncation": null,
  "padding": null,
  "added_tokens": [
    {
      "id": 0,
      "content": "<pad>",
      "single_word": false,
      "lstrip": false,
      "rstrip": false,
      "normalized": false,
      "special": true
    },
    {
      "id": 1,
      "content": "<s>",
      "single_word": false,
      "lstrip": false,
      "rstrip": false,
      "normalized": false,
      "special": true
    },
    {
      "id": 2,
      "content": "</s>",
      "single_word": false,
      "lstrip": false,
      "rstrip": false,
      "normalized": false,
      "special": true
    },
    {
      "id": 3,
      "content": "<unk>",
      "single_word": false,
      "lstrip": false,
      "rstrip": false,
      "normalized": false,
      "special": true
    }
  ],
  "normalizer": null,
  "pre_tokenizer": {
    "type": "Whitespace"
  },
  "post_processor": null,
  "decoder": null,
  "model": {
    "type": "BPE",
    "dropout": null,
    "unk_token": null,
    "continuing_subword_prefix": null,
    "end_of_word_suffix": null,
    "fuse_unk": false,
    "byte_fallback": false,
    "ignore_merges": false,
    "vocab": {
      "<pad>": 0,
      "<s>": 1,
      "</s>": 2,
      "<unk>": 3,
      "ஃ": 4,
      "அ": 5,
      "ஆ": 6,
      "இ": 7,
      "ஈ": 8,
      "உ": 9,
      "ஊ": 10,
      "எ": 11,
      "ஏ": 12,
      "ஐ": 13,
      "ஒ": 14,
      "ஓ": 15,
      "ஔ": 16,
      "க": 17,
      "ங": 18,
      "ச": 19,
      "ஜ": 20,
      "ஞ": 21,
      "ட": 22,
      "ண": 23,
      "த": 24,
      "ந": 25,
      "ன": 26,
      "ப": 27,
      "ம": 28,
      "ய": 29,
      "ர": 30,
      "ற": 31,
      "ல": 32,
      "ள": 33,
      "ழ": 34,
      "வ": 35,
      "ஷ": 36,
      "ஸ": 37,
      "ஹ": 38,
      "ா": 39,
      "ி": 40,
      "ீ": 41,
      "ு": 42,
      "ூ": 43,
      "ெ": 44,
      "ே": 45,
      "ை": 46,
      "ொ": 47,
      "ோ": 48,
      "ௌ": 49,
      "்": 50,
      "௦": 51,
      "௧": 52,
      "௪": 53,
      "௫": 54,
      "௬": 55,
      "௮": 56,
      "்த": 57,
      "்க": 58,
      "ல்": 59,
      "ம்": 60,
      "ர்": 61,
      "்ட": 62,
      "க்க": 63,
      "ன்": 64,
      "த்த": 65,
      "்ப": 66,
      "ில்": 67,
      "ட்ட": 68,
      "ள்": 69,
      "து": 70,
      "ிய": 71,
      "ந்த": 72,
      "ரு": 73,
      "ப்ப": 74,
      "ும்": 75,
      "தி": 76,
      "வி": 77,
      "ைய": 78,
      "ங்க": 79,
      "மா": 80,
      "க்கு": 81,
      "ள்ள": 82,
      "று": 83,
      "செ": 84,
      "த்து": 85,
      "டு": 86,
      "்ச": 87,
      "ார்": 88,
      "ரி": 89,
      "மு": 90,
      "டி": 91,
      "ாக": 92,
      "ற்": 93,
      "கு": 94,
      "கா": 95,
      "லை": 96,
      "ண்ட": 97,
      "னர்": 98,
      "ர்க": 99,
      "கி": 100,
      "சி": 101,
      "போ": 102,
      "ரா": 103,
      "பி": 104,
      "நி": 105,
      "ற்ற": 106,
      "ட்டு": 107,
      "பா": 108,
      "ன்ற": 109,
      "வா": 110,
      "ந்து": 111,
      "வே": 112,
      "வு": 113,
      "செய": 114,
      "தா": 115,
      "மி": 116,
      "கள": 117,
      "சா": 118,
      "ையில்": 119,
      "பு": 120,
      "னை": 121,
      "த்தி": 122,
      "பெ": 123,
      "தே": 124,
      "த்தில்": 125,
      "றி": 126,
      "நட": 127,
      "கொ": 128,
      "சு": 129,
      "லா": 130,
      "கள்": 131,
      "ர்கள்": 132,
      "ஸ்": 133,
      "வரு": 134,
      "நா": 135,
      "வர்": 136,
      "ச்ச": 137,
      "வர": 138,
      "இரு": 139,
      "உள்ள": 140,
      "ப்பு": 141,
      "ணி": 142,
      "ற்க": 143,
      "கட": 144,
      "தொ": 145,
      "இத": 146,
      "ன்று": 147,
      "லி": 148,
      "கூ": 149,
      "னா": 150,
      "பே": 151,
      "இந்த": 152,
      "ளி": 153,
      "வை": 154,
      "கோ": 155,
      "ப்பட்ட": 156,
      "நில": 157,
      "ியில்": 158,
      "ியா": 159,
      "ற்ப": 160,
      "வெ": 161,
      "மை": 162,
      "மே": 163,
      "ங்கள": 164,
      "டை": 165,
      "ுக்கு": 166,
      "வில்": 167,
      "னி": 168,
      "அதி": 169,
      "ர்த": 170,
      "ண்": 171,
      "க்கி": 172,
      "கிற": 173,
      "ண்டு": 174,
      "ட்டி": 175,
      "வீ": 176,
      "ற்று": 177,
      "தெ": 178,
      "சே": 179,
      "றை": 180,
      "்சி": 181,
      "செய்த": 182,
      "கே": 183,
      "வழ": 184,
      "ரை": 185,
      "மீ": 186,
      "க்": 187,
      "யி": 188,
      "ரம்": 189,
      "மிழ": 190,
      "லீ": 191,
      "க்கும்": 192,
      "திரு": 193,
      "அர": 194,
      "தமிழ": 195,
      "நே": 196,
      "ூர்": 197,
      "ர்கள": 198,
      "ம்ப": 199,
      "ழு": 200,
      "தொட": 201,
      "போலீ": 202,
      "தல்": 203,
      "தலை": 204,
      "்ய": 205,
      "ட்": 206,
      "ள்ளது": 207,
      "ங்கி": 208,
      "ியி": 209,
      "என": 210,
      "ல்ல": 211,
      "ப்பட்டு": 212,
      "கை": 213,
      "பொ": 214,
      "த்தை": 215,
      "ப்பி": 216,
      "மாக": 217,
      "சார்": 218,
      "நீ": 219,
      "பிர": 220,
      "தமிழக": 221,
      "மற்ற": 222,
      "டம்": 223,
      "ரிய": 224,
      "ண்டும்": 225,
      "லும்": 226,
      "த்": 227,
      "கிறது": 228,
      "வந்த": 229,
      "வது": 230,
      "டுத்த": 231,
      "னால்": 232,
      "ன்ன": 233,
      "டன்": 234,
      "ப்": 235,
      "ந்தி": 236,
      "ய்": 237,
      "ணை": 238,
      "செய்ய": 239,
      "வட்ட": 240,
      "முக": 241,
      "ங்கள்": 242,
      "ன்றனர்": 243,
      "மற்றும்": 244,
      "தாக": 245,
      "தீ": 246,
      "ான": 247,
      "டிய": 248,
      "ஒரு": 249,
      "ற்றி": 250,
      "முதல்": 251,
      "இது": 252,
      "மான": 253,
      "ன்ப": 254,
      "ஏற்ப": 255,
      "ங்கு": 256,
      "அரசு": 257,
      "னு": 258,
      "களை": 259,
      "அமை": 260,
      "டும்": 261,
      "மாவட்ட": 262,
      "ர்த்த": 263,
      "ற்கு": 264,
      "அவ": 265,
      "குறி": 266,
      "வேண்டும்": 267,
      "டுத்து": 268,
      "திய": 269,
      "ண்ண": 270,
      "மூ": 271,
      "என்று": 272,
      "தொடர்": 273,
      "போலீசார்": 274,
      "மக்க": 275,
      "ரூ": 276,
      "ட்ச": 277,
      "டிக்க": 278,
      "பல": 279,
      "ளை": 280,
      "என்ற": 281,
      "ன்னை": 282,
      "அத": 283,
      "ர்ந்த": 284,
      "தெரி": 285,
      "ப்பா": 286,
      "வல": 287,
      "ந்தது": 288,
      "ராஜ": 289,
      "ரில்": 290,
      "விசா": 291,
      "ியு": 292,
      "ளர்": 293,
      "நக": 294,
      "ால்": 295,
      "ோது": 296,
      "ஸ்ட": 297,
      "பர": 298,
      "வாக": 299,
      "க்கிற": 300,
      "ஆக": 301,
      "செய்து": 302,
      "பகு": 303,
      "நேற்று": 304,
      "கடந்த": 305,
      "சேர்ந்த": 306,
      "லு": 307,
      "வரை": 308,
      "களில்": 309,
      "சென்னை": 310,
      "இட": 311,
      "்கள்": 312,
      "த்திய": 313,
      "அறி": 314,
      "யா": 315,
      "ிரு": 316,
      "லில்": 317,
      "ையும்": 318,
      "ரிக்க": 319,
      "பட": 320,
      "தால்": 321,
      "வும்": 322,
      "ச்": 323,
      "ப்பட்டது": 324,
      "ையை": 325,
      "நிலையில்": 326,
      "ையா": 327,
      "மோ": 328,
      "ரோ": 329,
      "வர்கள்": 330,
      "னார்": 331,
      "ையி": 332,
      "லம்": 333,
      "ரும்": 334,
      "முன்": 335,
      "தெரிவி": 336,
      "ப்படு": 337,
      "ங்களில்": 338,
      "பதி": 339,
      "இருந்து": 340,
      "அதிகா": 341,
      "ஆகிய": 342,
      "வரும்": 343,
      "தன": 344,
      "ஞ்ச": 345,
      "ழி": 346,
      "ஷ்": 347,
      "கொண்ட": 348,
      "விட்ட": 349,
      "பண": 350,
      "இன்று": 351,
      "ட்சி": 352,
      "மணி": 353,
      "உட": 354,
      "குறித்து": 355,
      "த்துக்கு": 356,
      "ள்ளார்": 357,
      "எதி": 358,
      "போது": 359,
      "அரு": 360,
      "ட்டம்": 361,
      "அப்ப": 362,
      "ரண": 363,
      "மல்": 364,
      "தேதி": 365,
      "மரு": 366,
      "ஜெ": 367,
      "ட்டை": 368,
      "மாநில": 369,
      "தியில்": 370,
      "கின்றனர்": 371,
      "கம்": 372,
      "தம்": 373,
      "ியை": 374,
      "வில்லை": 375,
      "முடி": 376,
      "கூற": 377,
      "தேர்த": 378,
      "டா": 379,
      "ராம": 380,
      "ள்ளனர்": 381,
      "அவர்": 382,
      "வ்": 383,
      "இருந்த": 384,
      "ழை": 385,
      "தை": 386,
      "டெ": 387,
      "டுக்க": 388,
      "இதனால்": 389,
      "ட்டில்": 390,
      "சோ": 391,
      "ராக": 392,
      "மார்": 393,
      "என்ப": 394,
      "யில்": 395,
      "ரே": 396,
      "உள்ளது": 397,
      "ள்ளி": 398,
      "பய": 399,
      "ான்": 400,
      "சிய": 401,
      "ரவு": 402,
      "மாண": 403,
      "வெள": 404,
      "ஜி": 405,
      "த்துவ": 406,
      "மண": 407,
      "மக்கள்": 408,
      "க்கம்": 409,
      "அனு": 410,
      "இய": 411,
      "த்தனர்": 412,
      "ோர்": 413,
      "வன": 414,
      "விர": 415,
      "ஆண்டு": 416,
      "நடை": 417,
      "சம்ப": 418,
      "தக": 419,
      "க்கா": 420,
      "நிறு": 421,
      "பொது": 422,
      "அந்த": 423,
      "கல": 424,
      "்கள": 425,
      "எம்": 426,
      "மெ": 427,
      "மத்திய": 428,
      "நடி": 429,
      "மன்ற": 430,
      "பாக": 431,
      "பின்": 432,
      "அதிகாரி": 433,
      "ியாக": 434,
      "தமிழகம்": 435,
      "ஸ்ப": 436,
      "ர்க்க": 437,
      "ச்சி": 438,
      "லட்ச": 439,
      "பட்ட": 440,
      "சில": 441,
      "க்கப்பட்டு": 442,
      "ப்படும்": 443,
      "வர்கள": 444,
      "ந்": 445,
      "அளி": 446,
      "மருத்துவ": 447,
      "தர": 448,
      "பேர்": 449,
      "நீதி": 450,
      "பெற்ற": 451,
      "வல்": 452,
      "தலைவர்": 453,
      "ருக்கு": 454,
      "இதில்": 455,
      "மனை": 456,
      "வரது": 457,
      "மதி": 458,
      "வழக்கு": 459,
      "குற்ற": 460,
      "கொண்டு": 461,
      "பூ": 462,
      "மீது": 463,
      "அமைச்ச": 464,
      "சீ": 465,
      "கரு": 466,
      "கார்": 467,
      "ஸ்த": 468,
      "சிற": 469,
      "இந்": 470,
      "கண": 471,
      "ரீ": 472,
      "களுக்கு": 473,
      "ியது": 474,
      "வருகின்றனர்": 475,
      "மும்": 476,
      "கர்": 477,
      "வழங்க": 478,
      "ரன்": 479,
      "னம்": 480,
      "நடத்தி": 481,
      "ப்பட": 482,
      "வந்து": 483,
      "களி": 484,
      "ங்": 485,
      "இந்தியா": 486,
      "ிட்ட": 487,
      "மர்": 488,
      "பல்": 489,
      "த்தார்": 490,
      "வருகிறது": 491,
      "விள": 492,
      "ரணை": 493,
      "குதி": 494,
      "ியின்": 495,
      "சொ": 496,
      "கைது": 497,
      "அருகே": 498,
      "உள்ளிட்ட": 499,
      "வேறு": 500,
      "கன்": 501,
      "இந்நிலையில்": 502,
      "தொடர்ந்து": 503,
      "ேன்": 504,
      "எல்": 505,
      "விசாரணை": 506,
      "ங்களை": 507,
      "ருந்த": 508,
      "நெ": 509,
      "சென்று": 510,
      "விட்டு": 511,
      "செல்": 512,
      "்கா": 513,
      "தற்க": 514,
      "கட்ட": 515,
      "தவி": 516,
      "ண்டி": 517,
      "கூட்ட": 518,
      "உத்த": 519,
      "ளின்": 520,
      "ப்படுகிறது": 521,
      "டித்து": 522,
      "சென்ற": 523,
      "அணி": 524,
      "மைய": 525,
      "லோ": 526,
      "ஆனால்": 527,
      "அடை": 528,
      "நிலைய": 529,
      "வடிக்க": 530,
      "ட்ப": 531,
      "மது": 532,
      "நடவடிக்க": 533,
      "க்கப்பட்ட": 534,
      "பரி": 535,
      "கூறி": 536,
      "அனை": 537,
      "கையில்": 538,
      "ஈடு": 539,
      "நாட": 540,
      "பை": 541,
      "்கி": 542,
      "லாம்": 543,
      "சூ": 544,
      "பணி": 545,
      "தில்": 546,
      "போரா": 547,
      "ஆயி": 548,
      "தேர்தல்": 549,
      "க்கிறது": 550,
      "வுக்கு": 551,
      "சட்ட": 552,
      "பிற": 553,
      "த்தின்": 554,
      "அதிக": 555,
      "அப்போது": 556,
      "கொள்ள": 557,
      "இல்": 558,
      "ுடன்": 559,
      "முறை": 560,
      "காலை": 561,
      "அறிவி": 562,
      "வின்": 563,
      "உய": 564,
      "மேலும்": 565,
      "தான்": 566,
      "ரஸ்": 567,
      "கட்சி": 568,
      "பெற": 569,
      "வரி": 570,
      "செயலா": 571,
      "ர்வு": 572,
      "ழந்த": 573,
      "லே": 574,
      "மன": 575,
      "ோம்": 576,
      "நிர்": 577,
      "விவ": 578,
      "ஆர்": 579,
      "ையடுத்து": 580,
      "ரத்தில்": 581,
      "லையில்": 582,
      "எஸ்": 583,
      "யம்": 584,
      "இற": 585,
      "அங்கு": 586,
      "க்கிய": 587,
      "தூ": 588,
      "க்ட": 589,
      "க்கை": 590,
      "தீவிர": 591,
      "நடவடிக்கை": 592,
      "இந்திய": 593,
      "செல்ல": 594,
      "சை": 595,
      "முழு": 596,
      "தோ": 597,
      "விழ": 598,
      "பகுதி": 599,
      "ப்பை": 600,
      "மூலம்": 601,
      "காங்கி": 602,
      "படி": 603,
      "பாது": 604,
      "அலு": 605,
      "ஜெய": 606,
      "பாஜ": 607,
      "இதை": 608,
      "வீர": 609,
      "பொரு": 610,
      "பாதுகா": 611,
      "ங்கா": 612,
      "்கு": 613,
      "சம்பவ": 614,
      "அலுவல": 615,
      "விடு": 616,
      "தற்ப": 617,
      "நிலை": 618,
      "ீர்": 619,
      "பகுதியில்": 620,
      "சந்தி": 621,
      "நடத்த": 622,
      "பாதி": 623,
      "பின்னர்": 624,
      "உத்தர": 625,
      "போட்ட": 626,
      "திமுக": 627,
      "க்கில்": 628,
      "பல்வேறு": 629,
      "வாய": 630,
      "நாடு": 631,
      "நோ": 632,
      "முதல்வர்": 633,
      "நீர்": 634,
      "ம்த": 635,
      "திட்ட": 636,
      "இதையடுத்து": 637,
      "ப்பட்டுள்ளது": 638,
      "ழ்": 639,
      "ளா": 640,
      "தவ": 641,
      "சன்": 642,
      "கிறார்": 643,
      "ஏற்பட்ட": 644,
      "அவரது": 645,
      "நகர்": 646,
      "ல்லி": 647,
      "ளம்": 648,
      "புது": 649,
      "எழு": 650,
      "அடுத்த": 651,
      "எடுக்க": 652,
      "ளர்கள்": 653,
      "சர": 654,
      "தற்போது": 655,
      "கிராம": 656,
      "ருந்து": 657,
      "உள": 658,
      "அடி": 659,
      "அதிமுக": 660,
      "அதிகாரிகள்": 661,
      "கல்": 662,
      "மின்": 663,
      "ர்களை": 664,
      "பார்த்த": 665,
      "வந்தது": 666,
      "க்காக": 667,
      "விழா": 668,
      "பெய": 669,
      "்பட": 670,
      "தனை": 671,
      "புரம்": 672,
      "ரெ": 673,
      "ரித்து": 674,
      "வாக்கு": 675,
      "ையே": 676,
      "பள்ளி": 677,
      "கால": 678,
      "பெற்று": 679,
      "கிடை": 680,
      "காரண": 681,
      "ன்ட": 682,
      "காங்கிரஸ்": 683,
      "நிர்வாக": 684,
      "மனு": 685,
      "பரபர": 686,
      "க்கான": 687,
      "கடை": 688,
      "மாவட்டம்": 689,
      "ச்சை": 690,
      "ங்களுக்கு": 691,
      "அண": 692,
      "ன்றன": 693,
      "செய்தனர்": 694,
      "தகவல்": 695,
      "தலைம": 696,
      "செயலாளர்": 697,
      "ரயில்": 698,
      "வைத்து": 699,
      "வேலை": 700,
      "ரின்": 701,
      "உறு": 702,
      "ிருந்த": 703,
      "பர்": 704,
      "சங்க": 705,
      "இல": 706,
      "பட்டு": 707,
      "வன்": 708,
      "்தி": 709,
      "டியாக": 710,
      "நீதிமன்ற": 711,
      "க்கல்": 712,
      "இவ்": 713,
      "தெரிய": 714,
      "ர்களுக்கு": 715,
      "தெரிவித்து": 716,
      "ஊழ": 717,
      "எதிர்": 718,
      "இதுகுறித்து": 719,
      "த்திற்கு": 720,
      "குழந்த": 721,
      "பில்": 722,
      "கழ": 723,
      "நிறுவன": 724,
      "ஆகியோர்": 725,
      "த்தது": 726,
      "கலந்து": 727,
      "த்தா": 728,
      "சர்": 729,
      "ண்ணா": 730,
      "திருவ": 731,
      "பிரி": 732,
      "உல": 733,
      "தன்": 734,
      "ணா": 735,
      "மொ": 736,
      "வெற்றி": 737,
      "ராட்சி": 738,
      "ியல்": 739,
      "வச": 740,
      "வாறு": 741,
      "ஸ்ட்": 742,
      "இர": 743,
      "தலைமை": 744,
      "விட": 745,
      "தின": 746,
      "முடிவு": 747,
      "குறை": 748,
      "ச்சா": 749,
      "ச்சு": 750,
      "டியா": 751,
      "ப்பில்": 752,
      "நாள்": 753,
      "பாதுகாப்பு": 754,
      "க்கொ": 755,
      "கோடி": 756,
      "்ப்ப": 757,
      "முற": 758,
      "தங்க": 759,
      "அமைச்சர்": 760,
      "திற": 761,
      "ணைய": 762,
      "ல்லூ": 763,
      "கொலை": 764,
      "ஒன்ற": 765,
      "ப்பது": 766,
      "்களை": 767,
      "விவசா": 768,
      "வதும்": 769,
      "தொழி": 770,
      "பழ": 771,
      "மாத": 772,
      "படு": 773,
      "நிதி": 774,
      "லட்சம்": 775,
      "மன்": 776,
      "எடுத்து": 777,
      "்து": 778,
      "தயா": 779,
      "தனது": 780,
      "பெண்": 781,
      "செயல்": 782,
      "அவர்கள்": 783,
      "விளையா": 784,
      "என்பது": 785,
      "ியே": 786,
      "மணிக்கு": 787,
      "க்கப்பட்டது": 788,
      "தல": 789,
      "க்கோ": 790,
      "ெக்ட": 791,
      "பெரும்": 792,
      "ய்வு": 793,
      "சிறு": 794,
      "ராம்": 795,
      "பக": 796,
      "தொடர்பாக": 797,
      "இதற்க": 798,
      "புகார்": 799,
      "சேர்ந்தவர்": 800,
      "கூறு": 801,
      "சாமி": 802,
      "புதிய": 803,
      "ஜா": 804,
      "மழை": 805,
      "கீ": 806,
      "ெட்": 807,
      "போலீஸ்": 808,
      "வேட்ப": 809,
      "ையாக": 810,
      "ஆயிரம்": 811,
      "இவ்வாறு": 812,
      "க்கள்": 813,
      "போட்டி": 814,
      "மாலை": 815,
      "அள": 816,
      "துறை": 817,
      "த்தம்": 818,
      "நடந்தது": 819,
      "க்கிறார்": 820,
      "நடந்த": 821,
      "பிரத": 822,
      "ராஜ்": 823,
      "பற்றி": 824,
      "மலை": 825,
      "அனைத்து": 826,
      "களும்": 827,
      "சார்பில்": 828,
      "இன்": 829,
      "ந்திர": 830,
      "வதாக": 831,
      "ன்றி": 832,
      "திருமண": 833,
      "ணம்": 834,
      "என்றார்": 835,
      "திட": 836,
      "முழுவதும்": 837,
      "தான": 838,
      "ங்கே": 839,
      "போல்": 840,
      "சிகி": 841,
      "குழந்தை": 842,
      "கோர்": 843,
      "செய்யப்பட்ட": 844,
      "நாய": 845,
      "ஆட்ட": 846,
      "ியார்": 847,
      "எம்எல்": 848,
      "வெளியி": 849,
      "துணை": 850,
      "குழு": 851,
      "வள": 852,
      "ப்பதி": 853,
      "பிடி": 854,
      "கன": 855,
      "பால": 856,
      "கும்": 857,
      "ர்களின்": 858,
      "கல்லூ": 859,
      "தேர்வு": 860,
      "முய": 861,
      "அழை": 862,
      "ளிடம்": 863,
      "சோதனை": 864,
      "எம்எல்ஏ": 865,
      "்கிற": 866,
      "இப்ப": 867,
      "ந்தார்": 868,
      "வருக்கு": 869,
      "புற": 870,
      "ார்கள்": 871,
      "சிகிச்சை": 872,
      "பறி": 873,
      "வீடு": 874,
      "ஏற்பட்டது": 875,
      "விரை": 876,
      "இரவு": 877,
      "உடன": 878,
      "மறு": 879,
      "விதி": 880,
      "டெல்லி": 881,
      "உள்பட": 882,
      "வாய்ப்ப": 883,
      "த்துறை": 884,
      "பீ": 885,
      "தாவது": 886,
      "இல்லை": 887,
      "போன்ற": 888,
      "காய": 889,
      "எந்த": 890,
      "வம்": 891,
      "ள்ளன": 892,
      "லுக்கு": 893,
      "மாற்ற": 894,
      "ர்த்தி": 895,
      "கின்றன": 896,
      "ணு": 897,
      "களின்": 898,
      "ியான": 899,
      "லலி": 900,
      "மனைவி": 901,
      "யே": 902,
      "ட்டுக்கு": 903,
      "வய": 904,
      "ற்சி": 905,
      "முடியா": 906,
      "வெளி": 907,
      "ளு": 908,
      "வடி": 909,
      "வாகன": 910,
      "ியுள்ளது": 911,
      "தொகுதி": 912,
      "ந்தனர்": 913,
      "லலிதா": 914,
      "மீண்டும்": 915,
      "அவரை": 916,
      "தியை": 917,
      "மீன": 918,
      "த்திரு": 919,
      "ங்கை": 920,
      "ஏற்பட்டு": 921,
      "அதே": 922,
      "ரிக்கை": 923,
      "ஊழிய": 924,
      "நடந்து": 925,
      "நிய": 926,
      "பெண": 927,
      "நாளை": 928,
      "விமான": 929,
      "பிறகு": 930,
      "ியிரு": 931,
      "சந்த": 932,
      "ஜெயலலிதா": 933,
      "குற்றம்": 934,
      "குடி": 935,
      "கொடுத்த": 936,
      "சம்": 937,
      "உயி": 938,
      "ஞ்சி": 939,
      "னாள்": 940,
      "ம்பி": 941,
      "சாலை": 942,
      "லாத": 943,
      "ரியா": 944,
      "தனி": 945,
      "விஜ": 946,
      "குதியில்": 947,
      "பதிவு": 948,
      "டும்ப": 949,
      "லான": 950,
      "ட்டும்": 951,
      "கட்ச": 952,
      "சிரிய": 953,
      "சில்": 954,
      "அனுமதி": 955,
      "மட்டு": 956,
      "ஸ்பி": 957,
      "ள்ளூர்": 958,
      "உள்ளனர்": 959,
      "முன்னாள்": 960,
      "கிட": 961,
      "வேட்பா": 962,
      "தனியார்": 963,
      "பஸ்": 964,
      "பார்": 965,
      "பிரச்": 966,
      "என்": 967,
      "ரிடம்": 968,
      "குடும்ப": 969,
      "மேற்க": 970,
      "லூர்": 971,
      "பேசி": 972,
      "ொரு": 973,
      "வுன்": 974,
      "வார்": 975,
      "மாதம்": 976,
      "மேற்ப": 977,
      "இவர்": 978,
      "லின்": 979,
      "உற": 980,
      "போராட்ட": 981,
      "தற்கு": 982,
      "முன்ன": 983,
      "வின": 984,
      "கூறினார்": 985,
      "தார": 986,
      "முக்கிய": 987,
      "ப்பதாக": 988,
      "கட்டி": 989,
      "நாள": 990,
      "ஷ்ண": 991,
      "தொடங்க": 992,
      "அதன்": 993,
      "கிரு": 994,
      "ெக்டர்": 995,
      "னில்": 996,
      "விப": 997,
      "வட": 998,
      "உயர்": 999,
      "ேரி": 1000,
      "விரு": 1001,
      "அதில்": 1002,
      "அதை": 1003,
      "நேர": 1004,
      "வங்க": 1005,
      "ப்ட": 1006,
      "மருத்துவமனை": 1007,
      "ப்படை": 1008,
      "சென்ன": 1009,
      "தண்ண": 1010,
      "தமிழ்": 1011,
      "பிரதமர்": 1012,
      "நடைபெற": 1013,
      "பிரசா": 1014,
      "வந்தார்": 1015,
      "மக்கள": 1016,
      "அம்": 1017,
      "க்கப்பட்டுள்ளது": 1018,
      "இணை": 1019,
      "பயி": 1020,
      "க்கூ": 1021,
      "நாக": 1022,
      "பணம்": 1023,
      "ஜோ": 1024,
      "தீர்": 1025,
      "எனவே": 1026,
      "விவசாயி": 1027,
      "சிறப்பு": 1028,
      "கத்தில்": 1029,
      "சத": 1030,
      "யு": 1031,
      "உரு": 1032,
      "இயக்கு": 1033,
      "நாட்கள": 1034,
      "ியும்": 1035,
      "நீதிபதி": 1036,
      "வந்தனர்": 1037,
      "இடங்களில்": 1038,
      "ஏற்க": 1039,
      "கண்ட": 1040,
      "சுற்று": 1041,
      "வர்களுக்கு": 1042,
      "ஷா": 1043,
      "வருகிறார்": 1044,
      "தற்காக": 1045,
      "ையின்": 1046,
      "வாய்ப்பு": 1047,
      "ஏற்படுத்த": 1048,
      "ரத்து": 1049,
      "்ச்ச": 1050,
      "த்தூர்": 1051,
      "ஈடுபட்ட": 1052,
      "அதிர்": 1053,
      "ஷன்": 1054,
      "வீட்டில்": 1055,
      "மேற்பட்ட": 1056,
      "போக்கு": 1057,
      "ண்டிய": 1058,
      "விசாரி": 1059,
      "கூறுகையில்": 1060,
      "விழு": 1061,
      "அமெ": 1062,
      "கோயி": 1063,
      "தாக்கல்": 1064,
      "வெளியே": 1065,
      "ப்பே": 1066,
      "கேட்டு": 1067,
      "அமெரிக்க": 1068,
      "வழி": 1069,
      "பரபரப்பு": 1070,
      "விட்டார்": 1071,
      "குமார்": 1072,
      "நான்": 1073,
      "அட": 1074,
      "வரத்து": 1075,
      "ஸ்க": 1076,
      "ிஸ்த": 1077,
      "பார்க்க": 1078,
      "தமிழகத்தில்": 1079,
      "தாக்கு": 1080,
      "செல": 1081,
      "கடும்": 1082,
      "மிக": 1083,
      "கல்லூரி": 1084,
      "பக்த": 1085,
      "முடிய": 1086,
      "முன்பு": 1087,
      "வாதி": 1088,
      "த்தினர்": 1089,
      "நிர்வாகி": 1090,
      "இதன்": 1091,
      "ர்த்து": 1092,
      "கட்டு": 1093,
      "மருத்துவமன": 1094,
      "கோயில்": 1095,
      "ராய": 1096,
      "மல": 1097,
      "பயன்ப": 1098,
      "வில": 1099,
      "பெரு": 1100,
      "ூரில்": 1101,
      "மேற்கொ": 1102,
      "இருக்கும்": 1103,
      "ம்க": 1104,
      "குறிப்பி": 1105,
      "டாக": 1106,
      "லேயே": 1107,
      "நிகழ": 1108,
      "ஞ்சா": 1109,
      "சென்றனர்": 1110,
      "பாகிஸ்த": 1111,
      "சிக": 1112,
      "க்கின்றனர்": 1113,
      "தெரு": 1114,
      "ியுள்ளார்": 1115,
      "த்திர": 1116,
      "த்துடன்": 1117,
      "நிறை": 1118,
      "பெரிய": 1119,
      "அனுப்பி": 1120,
      "்குமார்": 1121,
      "ஹீ": 1122,
      "விட்டது": 1123,
      "பகுதிகளில்": 1124,
      "காரணமாக": 1125,
      "தலைமையில்": 1126,
      "னும்": 1127,
      "ப்பாக": 1128,
      "ர்களிடம்": 1129,
      "தர்": 1130,
      "வகையில்": 1131,
      "பங்கே": 1132,
      "த்தும்": 1133,
      "மகன்": 1134,
      "கோரிக்கை": 1135,
      "திருவள்ளூர்": 1136,
      "தேச": 1137,
      "சினி": 1138,
      "கூடு": 1139,
      "நடத்தினர்": 1140,
      "ப்படுத்த": 1141,
      "உதவி": 1142,
      "ஜ்": 1143,
      "மேல்": 1144,
      "செய்": 1145,
      "பால்": 1146,
      "றிய": 1147,
      "மணிய": 1148,
      "க்கீ": 1149,
      "பயணி": 1150,
      "ஆணைய": 1151,
      "கெ": 1152,
      "ட்டா": 1153,
      "சிவ": 1154,
      "ம்பு": 1155,
      "தண்ட": 1156,
      "ஆசிரிய": 1157,
      "மருத்துவமனையில்": 1158,
      "பேச்சு": 1159,
      "சினிமா": 1160,
      "அது": 1161,
      "்தான்": 1162,
      "பொருட": 1163,
      "விண்ண": 1164,
      "முத": 1165,
      "உண": 1166,
      "ஹீரோ": 1167,
      "த்தால்": 1168,
      "பொறு": 1169,
      "பணியா": 1170,
      "காண": 1171,
      "தடை": 1172,
      "ரான": 1173,
      "ராணு": 1174,
      "உடல்": 1175,
      "சின்": 1176,
      "உடை": 1177,
      "அரசிய": 1178,
      "நு": 1179,
      "இவரது": 1180,
      "மடை": 1181,
      "ுக்கும்": 1182,
      "ஒது": 1183,
      "்ச்சி": 1184,
      "மோடி": 1185,
      "ஸ்ரீ": 1186,
      "முன்னி": 1187,
      "நடைபெற்ற": 1188,
      "விக்க": 1189,
      "வலியு": 1190,
      "உள்ளன": 1191,
      "இடம்": 1192,
      "ஆலோ": 1193,
      "ஸ்டா": 1194,
      "ஆத": 1195,
      "வலியுறு": 1196,
      "முரு": 1197,
      "ீரெ": 1198,
      "டுத்தி": 1199,
      "கிருஷ்ண": 1200,
      "மண்ட": 1201,
      "ஆய்வு": 1202,
      "டே": 1203,
      "ங்கல்": 1204,
      "நடக்கிறது": 1205,
      "போலீசா": 1206,
      "நகை": 1207,
      "திடீரெ": 1208,
      "மாணவி": 1209,
      "ட்டர்": 1210,
      "லாரி": 1211,
      "இருந்தது": 1212,
      "பொதுமக்கள்": 1213,
      "உலக": 1214,
      "லாக": 1215,
      "முன": 1216,
      "செய்தார்": 1217,
      "ப்படி": 1218,
      "ரியில்": 1219,
      "நல்ல": 1220,
      "சென்னையில்": 1221,
      "டிரை": 1222,
      "இங்கு": 1223,
      "போராட்டம்": 1224,
      "வசி": 1225,
      "தேசிய": 1226,
      "வங்கி": 1227,
      "கல்வி": 1228,
      "ப்பதிவு": 1229,
      "வகு": 1230,
      "சுமார்": 1231,
      "வினர்": 1232,
      "வாழ": 1233,
      "கால்": 1234,
      "அல்ல": 1235,
      "போக்குவரத்து": 1236,
      "வாலி": 1237,
      "இதற்கு": 1238,
      "ந்த்": 1239,
      "பெறு": 1240,
      "உறுப்பி": 1241,
      "உரி": 1242,
      "ாடு": 1243,
      "ரூர்": 1244,
      "ன்படி": 1245,
      "சதவீ": 1246,
      "தேவ": 1247,
      "கூட்டம்": 1248,
      "கேர": 1249,
      "ற்ச": 1250,
      "பதவி": 1251,
      "பிரச்னை": 1252,
      "தண்ணீர்": 1253,
      "ல்கள்": 1254,
      "தேர்தலில்": 1255,
      "விளையாட்டு": 1256,
      "அக": 1257,
      "மட்டும்": 1258,
      "வான": 1259,
      "கமி": 1260,
      "நல": 1261,
      "கூறப்படுகிறது": 1262,
      "நகர": 1263,
      "கேட்ட": 1264,
      "என்றும்": 1265,
      "கூறிய": 1266,
      "மட்டுமே": 1267,
      "தேடி": 1268,
      "வரம்": 1269,
      "லிருந்து": 1270,
      "உடனடியாக": 1271,
      "ண்டா": 1272,
      "த்திருந்த": 1273,
      "காவல்": 1274,
      "வெள்ள": 1275,
      "ரன": 1276,
      "விலை": 1277,
      "விஜய": 1278,
      "மாணவ": 1279,
      "சிபி": 1280,
      "மாணவர்கள்": 1281,
      "கண்டு": 1282,
      "சனை": 1283,
      "செலு": 1284,
      "சிறையில்": 1285,
      "யூ": 1286,
      "டாது": 1287,
      "ராள": 1288,
      "ன்ட்": 1289,
      "பிடிக்க": 1290,
      "மர": 1291,
      "இலங்கை": 1292,
      "போட்டியி": 1293,
      "ப்போ": 1294,
      "றுதி": 1295,
      "பாய்": 1296,
      "லாந்து": 1297,
      "தொழிலா": 1298,
      "ஷ்ட": 1299,
      "கண்கா": 1300,
      "பஸ": 1301,
      "வார்த்த": 1302,
      "திடீரென": 1303,
      "செல்லும்": 1304,
      "்யா": 1305,
      "நேரம்": 1306,
      "வழக்கில்": 1307,
      "அவருக்கு": 1308,
      "ஒன்றிய": 1309,
      "ஏராள": 1310,
      "நிறுத்த": 1311,
      "ழில்": 1312,
      "தேர்": 1313,
      "பிடித்து": 1314,
      "கொண்டனர்": 1315,
      "வருகிற": 1316,
      "ங்கம்": 1317,
      "ந்தா": 1318,
      "பணியில்": 1319,
      "மர்ம": 1320,
      "செய்யப்பட்டு": 1321,
      "ஜன": 1322,
      "ஆகியோ": 1323,
      "கூட்டணி": 1324,
      "வயது": 1325,
      "நிலையத்தில்": 1326,
      "ராணுவ": 1327,
      "ர்ந்து": 1328,
      "எஸ்பி": 1329,
      "அழைத்து": 1330,
      "தள": 1331,
      "வர்களை": 1332,
      "ற்றில்": 1333,
      "ஒருவர்": 1334,
      "விற்ப": 1335,
      "டாக்ட": 1336,
      "ளைய": 1337,
      "பாட": 1338,
      "ஏற்பட்டுள்ளது": 1339,
      "க்கப்படும்": 1340,
      "சிங்": 1341,
      "னவே": 1342,
      "ஸ்டி": 1343,
      "கூட": 1344,
      "ண்ணி": 1345,
      "ஏராளமான": 1346,
      "ஷி": 1347,
      "தெரிவித்தனர்": 1348,
      "கண்டி": 1349,
      "தியாக": 1350,
      "வண": 1351,
      "பார்த்து": 1352,
      "திருமணம்": 1353,
      "்களில்": 1354,
      "வழியாக": 1355,
      "பேர": 1356,
      "கொடுத்து": 1357,
      "றும்": 1358,
      "ஜூ": 1359,
      "ல்லை": 1360,
      "காஞ்சி": 1361,
      "இருவரும்": 1362,
      "வாய்": 1363,
      "ல்க": 1364,
      "நகராட்சி": 1365,
      "கிரி": 1366,
      "வித": 1367,
      "விசாரண": 1368,
      "படம்": 1369,
      "லட்சு": 1370,
      "காயம்": 1371,
      "ட்க": 1372,
      "இங்கி": 1373,
      "கர்நாட": 1374,
      "பெண்கள்": 1375,
      "படுத்த": 1376,
      "வேற்ற": 1377,
      "வகி": 1378,
      "கொண்டிருந்த": 1379,
      "சாலையில்": 1380,
      "சம்பவம்": 1381,
      "நேரத்தில்": 1382,
      "டையே": 1383,
      "அதற்கு": 1384,
      "புகா": 1385,
      "டைய": 1386,
      "ரிச": 1387,
      "வீட்டுக்கு": 1388,
      "ங்கிய": 1389,
      "னின்": 1390,
      "இருக்க": 1391,
      "மசா": 1392,
      "ரியாக": 1393,
      "கிழ": 1394,
      "ப்பெ": 1395,
      "வீரர்கள்": 1396,
      "சரி": 1397,
      "இடையே": 1398,
      "ஏற்கனவே": 1399,
      "சொந்த": 1400,
      "நடத்திய": 1401,
      "அரசியல்": 1402,
      "வெடி": 1403,
      "விவகா": 1404,
      "என்ன": 1405,
      "மாவட்டத்தில்": 1406,
      "பேரில்": 1407,
      "தும்": 1408,
      "ையினர்": 1409,
      "ண்ட்": 1410,
      "நகரில்": 1411,
      "திர": 1412,
      "கில்": 1413,
      "ஈடுபட்டு": 1414,
      "ஆட்சி": 1415,
      "நிர்வாகிகள்": 1416,
      "ரக": 1417,
      "தொடங்கி": 1418,
      "கைப்ப": 1419,
      "அல": 1420,
      "படத்தில்": 1421,
      "மாநிலம்": 1422,
      "அல்லது": 1423,
      "அனுப்ப": 1424,
      "ையான": 1425,
      "ண்ப": 1426,
      "எதிர்ப்பு": 1427,
      "ந்துள்ளது": 1428,
      "ட்டின்": 1429,
      "ஸ்தி": 1430,
      "னிய": 1431,
      "ற்றை": 1432,
      "இன்ஸ்ப": 1433,
      "தொழில்": 1434,
      "பக்தர்கள்": 1435,
      "இழ": 1436,
      "நடைபெறும்": 1437,
      "ல்மா": 1438,
      "இதற்கி": 1439,
      "யார்": 1440,
      "கோவை": 1441,
      "கொடுக்க": 1442,
      "மிர": 1443,
      "பள்ள": 1444,
      "ன்ஸ்": 1445,
      "ற்றிய": 1446,
      "படை": 1447,
      "நாட்டு": 1448,
      "வியா": 1449,
      "குவி": 1450,
      "தகவல": 1451,
      "கலை": 1452,
      "மருத்துவமனைக்கு": 1453,
      "அரசின்": 1454,
      "ொலை": 1455,
      "குட": 1456,
      "சினிமாரீ": 1457,
      "அண்ணா": 1458,
      "தெரியவந்தது": 1459,
      "மையாக": 1460,
      "சிலர்": 1461,
      "பறிமுதல்": 1462,
      "பகுதியை": 1463,
      "ஆலோசனை": 1464,
      "ப்பூர்": 1465,
      "நடிக்க": 1466,
      "பாகிஸ்தான்": 1467,
      "சக": 1468,
      "இன்ன": 1469,
      "வராக": 1470,
      "அலுவலக": 1471,
      "சம": 1472,
      "ழல்": 1473,
      "எம்பி": 1474,
      "தடு": 1475,
      "கொடு": 1476,
      "கழி": 1477,
      "இரண்டு": 1478,
      "ந்திரன்": 1479,
      "ஆஜ": 1480,
      "மகா": 1481,
      "பலர்": 1482,
      "குண்டு": 1483,
      "தீவிரவாதி": 1484,
      "ளுமன்ற": 1485,
      "வருகின்றன": 1486,
      "செய்யப்பட்டது": 1487,
      "க்குள்": 1488,
      "நீதிமன்றத்தில்": 1489,
      "விரி": 1490,
      "தற்கொலை": 1491,
      "அதிகாலை": 1492,
      "இயக்க": 1493,
      "மீன்": 1494,
      "தோல்": 1495,
      "ளவில்": 1496,
      "ாலும்": 1497,
      "கடி": 1498,
      "க்கோட்டை": 1499,
      "கோர்ட்": 1500,
      "சிறை": 1501,
      "பிரே": 1502,
      "இதுவரை": 1503,
      "சென்றார்": 1504,
      "ஊராட்சி": 1505,
      "மதுரை": 1506,
      "போல": 1507,
      "பந்து": 1508,
      "நாடா": 1509,
      "மக": 1510,
      "ருக்க": 1511,
      "கண்காணி": 1512,
      "வதால்": 1513,
      "வாரிய": 1514,
      "இடத்தில்": 1515,
      "தப்பி": 1516,
      "வார்த்தை": 1517,
      "திருச்சி": 1518,
      "இதே": 1519,
      "வதற்கு": 1520,
      "ராஜா": 1521,
      "அளவில்": 1522,
      "த்தக்க": 1523,
      "சேர்க்க": 1524,
      "வசதி": 1525,
      "மில்": 1526,
      "அதிர": 1527,
      "ரல்": 1528,
      "வாங்கி": 1529,
      "ஹா": 1530,
      "பேச": 1531,
      "உள்ளார்": 1532,
      "எண்ண": 1533,
      "ஆட்ச": 1534,
      "சேக": 1535,
      "சந்தித்து": 1536,
      "சினிமாரீல்மா": 1537,
      "அணை": 1538,
      "விட்டனர்": 1539,
      "வலை": 1540,
      "ையாள": 1541,
      "களாக": 1542,
      "தயாரி": 1543,
      "நண்ப": 1544,
      "பாக்கம்": 1545,
      "ியுடன்": 1546,
      "லாமல்": 1547,
      "பத": 1548,
      "நாடாளுமன்ற": 1549,
      "விஷ": 1550,
      "அங்கி": 1551,
      "ஆண்ட": 1552,
      "ஊழியர்கள்": 1553,
      "பெங்கள": 1554,
      "வையில்": 1555,
      "ள்ளதாக": 1556,
      "ாமல்": 1557,
      "கோர்ட்டில்": 1558,
      "ர்களும்": 1559,
      "விவசாயிகள்": 1560,
      "முன்தி": 1561,
      "இளை": 1562,
      "ிற": 1563,
      "வாக்க": 1564,
      "மகள்": 1565,
      "தென்": 1566,
      "அற": 1567,
      "பாடு": 1568,
      "வளர்": 1569,
      "ஸ்டாலின்": 1570,
      "திட்டமி": 1571,
      "கூறியதாவது": 1572,
      "தமிழகம்த": 1573,
      "தெரிவித்தார்": 1574,
      "பிரிவு": 1575,
      "செல்போ": 1576,
      "அமெரிக்கா": 1577,
      "சந்தே": 1578,
      "அவர்களை": 1579,
      "இளைஞ": 1580,
      "ியம்": 1581,
      "கீழ": 1582,
      "முன்தினம்": 1583,
      "பிள": 1584,
      "கத": 1585,
      "கொள": 1586,
      "மேற்கு": 1587,
      "த்தே": 1588,
      "ரயில்வே": 1589,
      "போலீசில்": 1590,
      "அடைந்த": 1591,
      "கிரிக்க": 1592,
      "பயணிகள்": 1593,
      "னே": 1594,
      "குறிப்பிட": 1595,
      "நினை": 1596,
      "கவுன்": 1597,
      "டெல்ல": 1598,
      "போட்டியில்": 1599,
      "வதில்": 1600,
      "பயிற்சி": 1601,
      "மசாலா": 1602,
      "நேற்றி": 1603,
      "இல்லாத": 1604,
      "காஞ்சிபுரம்": 1605,
      "தாப": 1606,
      "பேசிய": 1607,
      "பேட்டி": 1608,
      "ஒரே": 1609,
      "கூட்டத்தில்": 1610,
      "த்துள்ளது": 1611,
      "கவர்": 1612,
      "குடிநீர்": 1613,
      "வாத": 1614,
      "வால்": 1615,
      "எனது": 1616,
      "்த்த": 1617,
      "உயிரி": 1618,
      "ராஜன்": 1619,
      "ஆதர": 1620,
      "எதிராக": 1621,
      "ஆவடி": 1622,
      "த்திலும்": 1623,
      "வழங்கி": 1624,
      "ஏற்பாடு": 1625,
      "பரபரப்பை": 1626,
      "சாக": 1627,
      "ஆன": 1628,
      "காஷ்": 1629,
      "பதவ": 1630,
      "ருக்கும்": 1631,
      "ராஜே": 1632,
      "களுடன்": 1633,
      "வகுப்பு": 1634,
      "விசாரித்து": 1635,
      "வதை": 1636,
      "வோ": 1637,
      "தொடர்பு": 1638,
      "அம": 1639,
      "மாள்": 1640,
      "செய்யும்": 1641,
      "நேற்றிரவு": 1642,
      "அறிக்கை": 1643,
      "பத்தில்": 1644,
      "சட": 1645,
      "பான": 1646,
      "இன்ஸ்பெக்டர்": 1647,
      "ட்ரோ": 1648,
      "சமா": 1649,
      "கிலோ": 1650,
      "இயக்குனர்": 1651,
      "ளிலும்": 1652,
      "மறை": 1653,
      "விய": 1654,
      "மணியளவில்": 1655,
      "இதுபற்றி": 1656,
      "முடியாது": 1657,
      "பார": 1658,
      "வருமான": 1659,
      "யின்": 1660,
      "ஈடுபட்டனர்": 1661,
      "இருப்ப": 1662,
      "த்தன": 1663,
      "வேண்டிய": 1664,
      "விபத்து": 1665,
      "விற்பனை": 1666,
      "முத்து": 1667,
      "பிரா": 1668,
      "ரயி": 1669,
      "ப்பம்": 1670,
      "சின்ன": 1671,
      "அளிக்க": 1672,
      "தலைவர்கள்": 1673,
      "முடியும்": 1674,
      "எடுத்த": 1675,
      "ம்பரம்": 1676,
      "இடை": 1677,
      "உச்ச": 1678,
      "கருணா": 1679,
      "ையிலான": 1680,
      "கருத்து": 1681,
      "ியுள்ளனர்": 1682,
      "னுக்கு": 1683,
      "உறுப்பின": 1684,
      "ருடன்": 1685,
      "லட்சுமி": 1686,
      "ந்தை": 1687,
      "டிரைவர்": 1688,
      "அடிக்க": 1689,
      "வுடன்": 1690,
      "ஸ்டே": 1691,
      "முயற்சி": 1692,
      "வார்கள்": 1693,
      "க்கொண்ட": 1694,
      "தாக்குதல்": 1695,
      "வெங்க": 1696,
      "திரி": 1697,
      "டையில்": 1698,
      "நிகழ்ச்சி": 1699,
      "க்கள": 1700,
      "ஆதரவு": 1701,
      "துப்பா": 1702,
      "ிருந்தது": 1703,
      "மீனவர்கள்": 1704,
      "டோ": 1705,
      "ரங்க": 1706,
      "க்கே": 1707,
      "கவு": 1708,
      "வக்கீ": 1709,
      "ஸ்வர": 1710,
      "வாங்க": 1711,
      "உலகம்": 1712,
      "மாறு": 1713,
      "முகம்": 1714,
      "த்தக்கது": 1715,
      "பரிதாப": 1716,
      "ப்படவில்லை": 1717,
      "ஒவ்": 1718,
      "ியிருந்த": 1719,
      "கொள்ளைய": 1720,
      "இறுதி": 1721,
      "அரசுக்கு": 1722,
      "கோயிலில்": 1723,
      "ஒன்று": 1724,
      "நடிகை": 1725,
      "மத": 1726,
      "எண்ணி": 1727,
      "அடித்து": 1728,
      "அளித்த": 1729,
      "வொரு": 1730,
      "புரி": 1731,
      "கடு": 1732,
      "கிரிக்கெட்": 1733,
      "மும்பை": 1734,
      "கலெக்டர்": 1735,
      "ல்தான்": 1736,
      "நியமி": 1737,
      "இன்னும்": 1738,
      "பேட்டை": 1739,
      "வேட்பாளர்": 1740,
      "கேள்": 1741,
      "சம்பந்த": 1742,
      "எடு": 1743,
      "ஓட்ட": 1744,
      "நூ": 1745,
      "களிலும்": 1746,
      "டெல்லியில்": 1747,
      "விரைந்து": 1748,
      "மூக": 1749,
      "நிலையம்": 1750,
      "விசாரணையில்": 1751,
      "ரோடு": 1752,
      "உறவின": 1753,
      "போட்டு": 1754,
      "புதுடெல்லி": 1755,
      "மின்சா": 1756,
      "இவர்கள்": 1757,
      "ப்பிர": 1758,
      "காரில்": 1759,
      "டியில்": 1760,
      "பாத்": 1761,
      "த்தொ": 1762,
      "க்கண": 1763,
      "காவல": 1764,
      "வைத்தனர்": 1765,
      "புர": 1766,
      "திருத்த": 1767,
      "்தா": 1768,
      "செங்கல்": 1769,
      "கைய": 1770,
      "பல்க": 1771,
      "சட்டமன்ற": 1772,
      "முகா": 1773,
      "திரும்ப": 1774,
      "க்கழ": 1775,
      "எனக்கு": 1776,
      "உட்பட": 1777,
      "சமீ": 1778,
      "வாள": 1779,
      "அமைக்க": 1780,
      "வட்டா": 1781,
      "ரவி": 1782,
      "வழக்குப்பதிவு": 1783,
      "உற்ப": 1784,
      "பேரும்": 1785,
      "மோச": 1786,
      "த்தியா": 1787,
      "அருகில்": 1788,
      "ஸ்திரே": 1789,
      "கண்ண": 1790,
      "த்தல்": 1791,
      "பக்க": 1792,
      "ரூபாய்": 1793,
      "மோகன்": 1794,
      "எரி": 1795,
      "பரிசோதனை": 1796,
      "வேண்டு": 1797,
      "தெரிவித்துள்ளார்": 1798,
      "உறுதி": 1799,
      "கமிஷ": 1800,
      "வேன்": 1801,
      "கேள்வி": 1802,
      "பலி": 1803,
      "நாதன்": 1804,
      "சல்": 1805,
      "தெரிகிறது": 1806,
      "ியுள்ள": 1807,
      "பொருளா": 1808,
      "ஜீ": 1809,
      "கொள்ளை": 1810,
      "்களுக்கு": 1811,
      "ஓடி": 1812,
      "வைக்க": 1813,
      "உரிம": 1814,
      "வதற்காக": 1815,
      "வார": 1816,
      "சேலம்": 1817,
      "கர": 1818,
      "அம்ப": 1819,
      "களையும்": 1820,
      "ஒவ்வொரு": 1821,
      "சுந்த": 1822,
      "மனி": 1823,
      "அதிர்ச்ச": 1824,
      "தற்கான": 1825,
      "பேரை": 1826,
      "துற": 1827,
      "அப": 1828,
      "நப": 1829,
      "ப்பந்த": 1830,
      "பேசினார்": 1831,
      "நடைபெற்றது": 1832,
      "றா": 1833,
      "டியை": 1834,
      "தரு": 1835,
      "ர்கா": 1836,
      "விரைவில்": 1837,
      "வுட்": 1838,
      "இங்கிலாந்து": 1839,
      "சிபிஐ": 1840,
      "பொருட்கள்": 1841,
      "ியிடம்": 1842,
      "மக்களுக்கு": 1843,
      "உணவு": 1844,
      "மூர்த்தி": 1845,
      "ஏற்று": 1846,
      "சமூக": 1847,
      "ந்திரா": 1848,
      "வலியுறுத்தி": 1849,
      "பணிகள்": 1850,
      "இளம்": 1851,
      "காந்தி": 1852,
      "உதவ": 1853,
      "வேல்": 1854,
      "மடைந்த": 1855,
      "பாளைய": 1856,
      "சால": 1857,
      "வேக": 1858,
      "நெடு": 1859,
      "அவர்கள": 1860,
      "லால்": 1861,
      "சிலை": 1862,
      "கூறியுள்ளார்": 1863,
      "போர்": 1864,
      "சட்டச": 1865,
      "ட்டார்": 1866,
      "ியோ": 1867,
      "ருப": 1868,
      "திக": 1869,
      "சவு": 1870,
      "அமைப்பு": 1871,
      "பல்கலை": 1872,
      "டியே": 1873,
      "ப்பட்டன": 1874,
      "பன்": 1875,
      "அடிப்பட": 1876,
      "குறிப்பிடத்தக்கது": 1877,
      "இணைய": 1878,
      "வருக்கும்": 1879,
      "முருகன்": 1880,
      "மீட்டு": 1881,
      "பாரா": 1882,
      "காரணம்": 1883,
      "உரிய": 1884,
      "நீதிமன்றம்": 1885,
      "சிக்கி": 1886,
      "ொட்டி": 1887,
      "அரி": 1888,
      "ட்டனர்": 1889,
      "முறையாக": 1890,
      "கீழ்": 1891,
      "கடைசி": 1892,
      "நிறைவேற்ற": 1893,
      "பிறந்த": 1894,
      "ததால்": 1895,
      "மையான": 1896,
      "ன்க": 1897,
      "பாதிக்கப்பட்ட": 1898,
      "என்பதை": 1899,
      "ஆயிரத்து": 1900,
      "அதிர்ச்சி": 1901,
      "பணத்தை": 1902,
      "சதவீத": 1903,
      "வேட்பாள": 1904,
      "குழந்தைகள்": 1905,
      "டிவி": 1906,
      "ரத்த": 1907,
      "க்கவில்லை": 1908,
      "டீ": 1909,
      "அதன்படி": 1910,
      "்துறை": 1911,
      "நள்ளி": 1912,
      "இதற்காக": 1913,
      "இள": 1914,
      "கொள்": 1915,
      "டர்": 1916,
      "முறையில்": 1917,
      "பலத்த": 1918,
      "நாட்டில்": 1919,
      "தஞ்ச": 1920,
      "பயன்படுத்த": 1921,
      "பந்த": 1922,
      "ஒப்பந்த": 1923,
      "அனைவரும்": 1924,
      "நாங்கள்": 1925,
      "ஆயிர": 1926,
      "ப்பாளர்": 1927,
      "ஆயு": 1928,
      "நம்பி": 1929,
      "வரவே": 1930,
      "வீரர்": 1931,
      "கூடுதல்": 1932,
      "இருக்கிறது": 1933,
      "மாவட்டங்களில்": 1934,
      "அணு": 1935,
      "துவ": 1936,
      "என்பதால்": 1937,
      "ங்களும்": 1938,
      "சித": 1939,
      "திட்டம்": 1940,
      "உத்தரவு": 1941,
      "்பா": 1942,
      "சுவா": 1943,
      "தகரா": 1944,
      "தமிழ்நாடு": 1945,
      "பூர்": 1946,
      "பதில்": 1947,
      "மய": 1948,
      "ுக்கான": 1949,
      "செல்வ": 1950,
      "தங்கள்": 1951,
      "வேலூர்": 1952,
      "கேப்ட": 1953,
      "பேசு": 1954,
      "ஏற்படும்": 1955,
      "அதிகரித்து": 1956,
      "மிகவும்": 1957,
      "தடுக்க": 1958,
      "தியம்": 1959,
      "வாக்கா": 1960,
      "கோரி": 1961,
      "தொகுதியில்": 1962,
      "கட்சியின்": 1963,
      "சுப்": 1964,
      "பேச்சுவார்த்தை": 1965,
      "கருணாநிதி": 1966,
      "ற்பு": 1967,
      "அதிபர்": 1968,
      "த்திரி": 1969,
      "்கின்றனர்": 1970,
      "கர்நாடக": 1971,
      "தொடங்கியது": 1972,
      "தகுதி": 1973,
      "த்துள்ளார்": 1974,
      "போராட்டத்தில்": 1975,
      "ஒப்பு": 1976,
      "பற": 1977,
      "சுற்றி": 1978,
      "அப்பகுதியில்": 1979,
      "க்களை": 1980,
      "செய்தி": 1981,
      "ையொட்டி": 1982,
      "செய்யப்பட்டுள்ளது": 1983,
      "வெளியிட": 1984,
      "ப்பட்டனர்": 1985,
      "ையால்": 1986,
      "மாற": 1987,
      "்க்க": 1988,
      "கட்டிட": 1989,
      "தலி": 1990,
      "இடத்துக்கு": 1991,
      "னியா": 1992,
      "தரா": 1993,
      "புழல்": 1994,
      "பம்": 1995,
      "செங்கல்பட்டு": 1996,
      "கொண்டா": 1997,
      "ம்பர்": 1998,
      "முகஸ்டாலின்": 1999,
      "ஏற்படுத்தி": 2000,
      "எக்": 2001,
      "ப்பன்": 2002,
      "பெரும்பா": 2003,
      "கட்டுப்பா": 2004,
      "வந்துள்ளது": 2005,
      "சந்திர": 2006,
      "பட்ச": 2007,
      "அதிரடி": 2008,
      "ங்களது": 2009,
      "அன்": 2010,
      "ங்களிலும்": 2011,
      "பாரி": 2012,
      "மேற்கொள்ள": 2013,
      "நடிகர்": 2014,
      "வெளியாக": 2015,
      "அலுவலகத்தில்": 2016,
      "வளாக": 2017,
      "எஸ்ஐ": 2018,
      "ண்மை": 2019,
      "அறிக்க": 2020,
      "நடைபெறு": 2021,
      "செய்தது": 2022,
      "ற்றம்": 2023,
      "ப்புக்கு": 2024,
      "கம்ப": 2025,
      "முதிக": 2026,
      "எச்ச": 2027,
      "எது": 2028,
      "ராகு": 2029,
      "எம்எல்ஏக்கள்": 2030,
      "வாலிபர்": 2031,
      "ராட்ச": 2032,
      "சுகா": 2033,
      "திரும்பி": 2034,
      "காரை": 2035,
      "காட்சி": 2036,
      "நாட்களுக்கு": 2037,
      "கொண்டார்": 2038,
      "கரன்": 2039,
      "பாபு": 2040,
      "ஏற்படுத்தியுள்ளது": 2041,
      "ீஸ்": 2042,
      "என்பவர்": 2043,
      "தீய": 2044,
      "செல்வம்": 2045,
      "ஆர்ப்பா": 2046,
      "டாஸ்": 2047,
      "மாற்று": 2048,
      "கார்த்தி": 2049,
      "போன": 2050,
      "போட": 2051,
      "ியினர்": 2052,
      "மாற்றம்": 2053,
      "பார்வ": 2054,
      "சிறி": 2055,
      "இப்போது": 2056,
      "தண்டனை": 2057,
      "பழனி": 2058,
      "மற": 2059,
      "வரா": 2060,
      "விக்கெட்": 2061,
      "குமா": 2062,
      "கூடாது": 2063,
      "மூத்த": 2064,
      "விருது": 2065,
      "தரப்பில்": 2066,
      "தலைமையிலான": 2067,
      "வீட்டு": 2068,
      "அடிப்படையில்": 2069,
      "ப்பூ": 2070,
      "வற்றை": 2071,
      "ஆஸ்திரே": 2072,
      "துரை": 2073,
      "ள்ளு": 2074,
      "பட்டா": 2075,
      "ஆஸ்திரேல": 2076,
      "காட்டி": 2077,
      "மொத்தம்": 2078,
      "சேகர்": 2079,
      "ங்கோ": 2080,
      "பிரசாரம்": 2081,
      "ற்கும்": 2082,
      "ப்பாக்கம்": 2083,
      "பட்டிய": 2084,
      "அடிக்கடி": 2085,
      "பவு": 2086,
      "துப்பாக்கி": 2087,
      "ட்டிய": 2088,
      "திடீர்": 2089,
      "யோ": 2090,
      "க்கணக்கான": 2091,
      "ஆறு": 2092,
      "பவுன்": 2093,
      "தீவிரவாதிகள்": 2094,
      "இறந்து": 2095,
      "லாத்கா": 2096,
      "தேமுதிக": 2097,
      "பூஜ": 2098,
      "ஆட்டோ": 2099,
      "சுற்றுலா": 2100,
      "ியன்": 2101,
      "வாழ்": 2102,
      "அவர்களுக்கு": 2103,
      "்கிறார்": 2104,
      "இறந்தார்": 2105,
      "ட்டத்தில்": 2106,
      "இருப்பதாக": 2107,
      "எஸ": 2108,
      "முயன்ற": 2109,
      "சரமா": 2110,
      "ஆப்": 2111,
      "தினமும்": 2112,
      "மதிப்பு": 2113,
      "ஆரம்": 2114,
      "ராஜி": 2115,
      "கொல்ல": 2116,
      "நடைபெற்று": 2117,
      "ையிலும்": 2118,
      "ந்ததும்": 2119,
      "செய்துள்ளனர்": 2120,
      "ங்கும்": 2121,
      "நிறுத்தி": 2122,
      "அமைச்சர்கள்": 2123,
      "க்குழு": 2124,
      "நெல்லை": 2125,
      "பெயர்": 2126,
      "ஒப்படை": 2127,
      "ஹெ": 2128,
      "பலாத்கா": 2129,
      "கள்ள": 2130,
      "திருவா": 2131,
      "ட்டையில்": 2132,
      "மூல": 2133,
      "பட்": 2134,
      "விசாரணைக்கு": 2135,
      "ாம்": 2136,
      "பையில்": 2137,
      "யூனி": 2138,
      "டெஸ்ட்": 2139,
      "யானை": 2140,
      "பரிதாபமாக": 2141,
      "மாநகராட்சி": 2142,
      "என்னை": 2143,
      "அப்பகுதி": 2144,
      "சிகலா": 2145,
      "கேரளா": 2146,
      "குற்றச்சா": 2147,
      "தலா": 2148,
      "பட்டி": 2149,
      "சசிகலா": 2150,
      "லங்கா": 2151,
      "ங்களின்": 2152,
      "ஆணையம்": 2153,
      "ட்டூர்": 2154,
      "னிடம்": 2155,
      "உடனே": 2156,
      "நாட்களாக": 2157,
      "தாகவும்": 2158,
      "பஞ்சா": 2159,
      "முன்னே": 2160,
      "ண்டர்": 2161,
      "ஊர்": 2162,
      "த்தையும்": 2163,
      "சுரே": 2164,
      "டியோ": 2165,
      "நிறுவனம்": 2166,
      "ஷூ": 2167,
      "சதவீதம்": 2168,
      "மற்றொரு": 2169,
      "பிரதேச": 2170,
      "த்தின": 2171,
      "ும்போது": 2172,
      "மேலா": 2173,
      "மத்த": 2174,
      "திறந்து": 2175,
      "த்திரம்": 2176,
      "இன்ஜி": 2177,
      "வெட்டி": 2178,
      "குடியிரு": 2179,
      "நாட்கள்": 2180,
      "வளர்ச்சி": 2181,
      "ஜனா": 2182,
      "வரையும்": 2183,
      "சுகாதார": 2184,
      "வட்டார": 2185,
      "அங்கிருந்து": 2186,
      "உயிரிழந்த": 2187,
      "சொத்து": 2188,
      "இலவச": 2189,
      "நிகழ்ச்ச": 2190,
      "தெருவை": 2191,
      "மண்டல": 2192,
      "மாக்": 2193,
      "மாநிலத்தில்": 2194,
      "ங்களாக": 2195,
      "்த்து": 2196,
      "ப்பான": 2197,
      "புகு": 2198,
      "ணியில்": 2199,
      "பரு": 2200,
      "ரசு": 2201,
      "ப்பேட்டை": 2202,
      "களுக்கும்": 2203,
      "ஷே": 2204,
      "மருந்து": 2205,
      "அவ்": 2206,
      "முன்னிலை": 2207,
      "ஆப": 2208,
      "விண்ணப்பி": 2209,
      "கிராமத்தை": 2210,
      "க்கத்தில்": 2211,
      "விழாவில்": 2212,
      "தீர்மான": 2213,
      "சிக்க": 2214,
      "வீழ": 2215,
      "ஞ்சேரி": 2216,
      "கழு": 2217,
      "னல்": 2218,
      "கண்டித்து": 2219,
      "ஆல": 2220,
      "கன்ன": 2221,
      "நிர": 2222,
      "ஸ்பெ": 2223,
      "எக்ஸ்பி": 2224,
      "ெய்": 2225,
      "ச்சேரி": 2226,
      "கேரள": 2227,
      "வாரி": 2228,
      "ஆந்திரா": 2229,
      "சபா": 2230,
      "கும்பல்": 2231,
      "காலி": 2232,
      "சடல": 2233,
      "சர்வ": 2234,
      "ஷ்டி": 2235,
      "த்துற": 2236,
      "வெளியிட்டு": 2237,
      "ஆந்திர": 2238,
      "கிருஷ்ணன்": 2239,
      "மொத்த": 2240,
      "கிராமத்தில்": 2241,
      "வியை": 2242,
      "எல்ல": 2243,
      "டாக்டர்": 2244,
      "செயல": 2245,
      "நடக்கும்": 2246,
      "வதி": 2247,
      "தேவை": 2248,
      "வரின்": 2249,
      "பள்ளியில்": 2250,
      "மகளி": 2251,
      "பதிந்து": 2252,
      "வைத்திருந்த": 2253,
      "பெற்றோர்": 2254,
      "த்தான்": 2255,
      "குளி": 2256,
      "விவர": 2257,
      "காய்ச்ச": 2258,
      "நடு": 2259,
      "ழிப்பு": 2260,
      "பயன்படுத்தி": 2261,
      "கமிஷனர்": 2262,
      "அறிவிப்பு": 2263,
      "பைக்கில்": 2264,
      "க்கொண்டு": 2265,
      "யர்": 2266,
      "காவிரி": 2267,
      "ர்க்": 2268,
      "்த்தி": 2269,
      "சுப்பிர": 2270,
      "ையோ": 2271,
      "இந்தி": 2272,
      "படங்களில்": 2273,
      "தவிர": 2274,
      "வானி": 2275,
      "வழக்க": 2276,
      "ஜே": 2277,
      "யாரும்": 2278,
      "மணல்": 2279,
      "அழ": 2280,
      "குறித்த": 2281,
      "எதிர்பார்க்க": 2282,
      "விண்ணப்ப": 2283,
      "நியூ": 2284,
      "க்கிறேன்": 2285,
      "இருந்தார்": 2286,
      "ர்கே": 2287,
      "நீண்ட": 2288,
      "பல்கலைக்கழ": 2289,
      "வர்களின்": 2290,
      "மல்லி": 2291,
      "மொழி": 2292,
      "ரீம்": 2293,
      "ஒதுக்கீ": 2294,
      "இதற்கிடையில்": 2295,
      "விடும்": 2296,
      "பொதுச்": 2297,
      "வீசி": 2298,
      "எண்ணிக்கை": 2299,
      "எதிர்த்து": 2300,
      "உத்தரவிட்டு": 2301,
      "சமீபத்தில்": 2302,
      "தாக்கி": 2303,
      "நடித்த": 2304,
      "எதுவும்": 2305,
      "மாட்ட": 2306,
      "தொண்ட": 2307,
      "அடைந்தனர்": 2308,
      "அலுவலகம்": 2309,
      "அஞ்ச": 2310,
      "சேர்த்து": 2311,
      "சக்தி": 2312,
      "குறைந்த": 2313,
      "ல்லா": 2314,
      "தரிச": 2315,
      "அக்க": 2316,
      "வென்ற": 2317,
      "குழ": 2318,
      "பிஎஸ்": 2319,
      "சாப்பி": 2320,
      "மக்களின்": 2321,
      "தாய்": 2322,
      "அறு": 2323,
      "ரன்கள்": 2324,
      "வோம்": 2325,
      "ட்டியில்": 2326,
      "டத்தில்": 2327,
      "வாரம்": 2328,
      "பன்ன": 2329,
      "சேர்ந்து": 2330,
      "தாஸ்": 2331,
      "ம்பா": 2332,
      "அதற்க": 2333,
      "ஆள": 2334,
      "ப்போது": 2335,
      "நாயகர்": 2336,
      "வார்டு": 2337,
      "ரியை": 2338,
      "களிடம்": 2339,
      "கூடிய": 2340,
      "மோதிய": 2341,
      "தொலை": 2342,
      "வாலிப": 2343,
      "விவசாய": 2344,
      "எதிர்க": 2345,
      "கூட்டு": 2346,
      "நடத்து": 2347,
      "நர்": 2348,
      "சொல்ல": 2349,
      "காட்டு": 2350,
      "பயங்க": 2351,
      "வழங்கப்படும்": 2352,
      "கேப்டன்": 2353,
      "தஞ்சை": 2354,
      "சம்பந்தப்பட்ட": 2355,
      "தூர்": 2356,
      "கிடைத்தது": 2357,
      "ஆவண": 2358,
      "பொன்ன": 2359,
      "ப்பட்டார்": 2360,
      "கைப்பற்றி": 2361,
      "கிள": 2362,
      "தூத்துக்கு": 2363,
      "வழக்கம்": 2364,
      "உற்பத்தி": 2365,
      "பிரேத": 2366,
      "படகு": 2367,
      "விடுத்து": 2368,
      "உள்ளா": 2369,
      "ியால்": 2370,
      "ஆண்டுகளாக": 2371,
      "திருத்தணி": 2372,
      "டாஸ்மாக்": 2373,
      "ங்கில்": 2374,
      "பூஜை": 2375,
      "மோதி": 2376,
      "மங்க": 2377,
      "இல்லாமல்": 2378,
      "உறவினர்கள்": 2379,
      "மாறி": 2380,
      "முடியாமல்": 2381,
      "ிருவ": 2382,
      "நெடுஞ்சா": 2383,
      "க்கிர": 2384,
      "க்காமல்": 2385,
      "ஆசிரியர்": 2386,
      "மாற்றி": 2387,
      "நின்ற": 2388,
      "ஆண்டுகளுக்கு": 2389,
      "கிழக்கு": 2390,
      "அம்பத்தூர்": 2391,
      "னாலும்": 2392,
      "சுவாமி": 2393,
      "ியடை": 2394,
      "பெட்ரோ": 2395,
      "ஓட்டு": 2396,
      "பன்னீர்": 2397,
      "டாமல்": 2398,
      "சட்டம்": 2399,
      "அறை": 2400,
      "வாசன்": 2401,
      "அலுவலர்": 2402,
      "தொடர்பான": 2403,
      "விபத்தில்": 2404,
      "க்கலாம்": 2405,
      "வக்கீல்": 2406,
      "இல்ல": 2407,
      "தொழிற்ச": 2408,
      "ஆட்டத்தில்": 2409,
      "விடுதலை": 2410,
      "வாதம்": 2411,
      "எப்படி": 2412,
      "சோதன": 2413,
      "த்திலேயே": 2414,
      "அவதி": 2415,
      "அணியின்": 2416,
      "கழிவு": 2417,
      "தெலு": 2418,
      "றவு": 2419,
      "ஓய்வு": 2420,
      "பது": 2421,
      "ஏற்றி": 2422,
      "இறந்த": 2423,
      "அதிகமான": 2424,
      "வியல்": 2425,
      "க்கிறார்கள்": 2426,
      "்களும்": 2427,
      "வாரண": 2428,
      "பிரச்ன": 2429,
      "முடியவில்லை": 2430,
      "பாளையம்": 2431,
      "சர்வதேச": 2432,
      "எதிர்க்க": 2433,
      "தகராறு": 2434,
      "ப்பர்": 2435,
      "குள": 2436,
      "ளிகள்": 2437,
      "அவரிடம்": 2438,
      "விவகாரம்": 2439,
      "வழக்கை": 2440,
      "தந்தை": 2441,
      "மரா": 2442,
      "க்கின்றன": 2443,
      "மோசடி": 2444,
      "படித்து": 2445,
      "வைத்தார்": 2446,
      "இதுதொடர்பாக": 2447,
      "ளராக": 2448,
      "ஐதரா": 2449,
      "எட": 2450,
      "காந்த்": 2451,
      "முற்று": 2452,
      "ட்பு": 2453,
      "பாலா": 2454,
      "ரசிக": 2455,
      "மரி": 2456,
      "வருட": 2457,
      "விடம்": 2458,
      "அழு": 2459,
      "ியாளர்": 2460,
      "பாலி": 2461,
      "ர்கோ": 2462,
      "பங்கேற்க": 2463,
      "எதிரான": 2464,
      "இதனை": 2465,
      "சேர்த்த": 2466,
      "லட்சத்து": 2467,
      "நிமி": 2468,
      "மத்தியில்": 2469,
      "முதலில்": 2470,
      "ஷூட்டி": 2471,
      "காலம்": 2472,
      "கட்டணம்": 2473,
      "அவை": 2474,
      "ப்பாடி": 2475,
      "பாதிப்பு": 2476,
      "கம்பெ": 2477,
      "ந்தர்": 2478,
      "க்ஸ்": 2479,
      "அதனால்": 2480,
      "ரஜி": 2481,
      "மகளிர்": 2482,
      "பேருக்கு": 2483,
      "நிர்வாகம்": 2484,
      "ண்டாம்": 2485,
      "திருப்ப": 2486,
      "தப்ப": 2487,
      "லஞ்ச": 2488,
      "க்கெ": 2489,
      "மகன": 2490,
      "அதிகமாக": 2491,
      "தீவிரமாக": 2492,
      "டிஎஸ்பி": 2493,
      "இதற்கிடையே": 2494,
      "இனி": 2495,
      "தமிழகம்க": 2496,
      "நுழை": 2497,
      "ாத": 2498,
      "கடத்தி": 2499,
      "நாத்": 2500,
      "உரிமை": 2501,
      "நாயக": 2502,
      "பாய": 2503,
      "ஓட்டி": 2504,
      "பயணம்": 2505,
      "பாண்டிய": 2506,
      "விட்டால்": 2507,
      "முதன்": 2508,
      "கட்டண": 2509,
      "வசூ": 2510,
      "ரமே": 2511,
      "முறைகே": 2512,
      "மழ": 2513,
      "துவங்க": 2514,
      "கோவி": 2515,
      "க்கடை": 2516,
      "கிடைக்கும்": 2517,
      "லங்கானா": 2518,
      "அங்குள்ள": 2519,
      "குற்றச்சாட்டு": 2520,
      "காதல்": 2521,
      "ஆண": 2522,
      "நெருக்க": 2523,
      "நாளில்": 2524,
      "சுப்ரீம்": 2525,
      "நடைபெறுகிறது": 2526,
      "ஜனாதி": 2527,
      "மகே": 2528,
      "என்றனர்": 2529,
      "இன்ற": 2530,
      "ரும்பு": 2531,
      "ஈரோடு": 2532,
      "ரணி": 2533,
      "மிரட்ட": 2534,
      "இவர்கள": 2535,
      "நோய்": 2536,
      "நகரை": 2537,
      "ாகி": 2538,
      "காஷ்மீ": 2539,
      "இடி": 2540,
      "திட்டமிட்டு": 2541,
      "உண்ணா": 2542,
      "வருடன்": 2543,
      "லத்தில்": 2544,
      "பாமக": 2545,
      "சன": 2546,
      "பஸ்ச": 2547,
      "வாழ்க்க": 2548,
      "சூர்": 2549,
      "மனோ": 2550,
      "கணக்கில்": 2551,
      "க்குமார்": 2552,
      "சோதா": 2553,
      "ிறது": 2554,
      "அதிகம்": 2555,
      "சூழ்": 2556,
      "ஸ்டேட்": 2557,
      "க்கூடாது": 2558,
      "அவசர": 2559,
      "தடுப்பு": 2560,
      "வைக்கப்பட்ட": 2561,
      "நிருப": 2562,
      "தையில்": 2563,
      "தர்ம": 2564,
      "சீர": 2565,
      "மரண": 2566,
      "சிர": 2567,
      "கையை": 2568,
      "மீட்க": 2569,
      "வெளியிட்ட": 2570,
      "மோதல்": 2571,
      "வசித்து": 2572,
      "ீடு": 2573,
      "அணிகள்": 2574,
      "விரோ": 2575,
      "கவர்னர்": 2576,
      "விஜய்": 2577,
      "ஆய்": 2578,
      "வீட்டி": 2579,
      "க்கப்படு": 2580,
      "ண்டை": 2581,
      "சேவை": 2582,
      "அடுத்து": 2583,
      "மக்களை": 2584,
      "தெலங்கானா": 2585,
      "இஸ்": 2586,
      "படுகாயம்": 2587,
      "த்தேர்த": 2588,
      "பெறும்": 2589,
      "எவ்": 2590,
      "ஆஜர்": 2591,
      "வான்": 2592,
      "வீன": 2593,
      "பணியாற்றி": 2594,
      "தெற்கு": 2595,
      "படத்தை": 2596,
      "ஊத்து": 2597,
      "கிமீ": 2598,
      "கவன": 2599,
      "நோக்கி": 2600,
      "போலீசாருக்கு": 2601,
      "தெரியா": 2602,
      "ணைப்பு": 2603,
      "மானது": 2604,
      "தொழிலாளர்கள்": 2605,
      "க்கப்பட்டுள்ளனர்": 2606,
      "உறுப்பினர்கள்": 2607,
      "வாகனங்கள்": 2608,
      "செல்போன்": 2609,
      "வியாபாரி": 2610,
      "குரு": 2611,
      "கழக": 2612,
      "வெங்கடே": 2613,
      "பழைய": 2614,
      "தங்களது": 2615,
      "ரொ": 2616,
      "ற்றும்": 2617,
      "ப்படுத்தி": 2618,
      "சட்டசபை": 2619,
      "ட்ஸ்": 2620,
      "தேவையான": 2621,
      "கடற்க": 2622,
      "வீட்டின்": 2623,
      "செய்யப்பட்டார்": 2624,
      "மாணவிகள்": 2625,
      "முன்ப": 2626,
      "நாகை": 2627,
      "திருப்பதி": 2628,
      "தோல்வி": 2629,
      "ஏரி": 2630,
      "பிரசார": 2631,
      "சாம்ப": 2632,
      "நாளாக": 2633,
      "தரப்பி": 2634,
      "ன்றம்": 2635,
      "மனித": 2636,
      "ஜரா": 2637,
      "உயர்த்த": 2638,
      "ன்னி": 2639,
      "வர்த்த": 2640,
      "எஸ்சி": 2641,
      "நீதிபதிகள்": 2642,
      "மீறி": 2643,
      "பங்கேற்ற": 2644,
      "இருப்பது": 2645,
      "ையுடன்": 2646,
      "நடித்து": 2647,
      "ஊழல்": 2648,
      "வில்ல": 2649,
      "உள்ளே": 2650,
      "ரகசிய": 2651,
      "பிரபல": 2652,
      "உண்ணாவிர": 2653,
      "கூறினர்": 2654,
      "செய்துள்ளது": 2655,
      "கணவர்": 2656,
      "உறுப்பினர்": 2657,
      "நரே": 2658,
      "கடல்": 2659,
      "எஸ்டி": 2660,
      "ஜெட்": 2661,
      "பெங்களூர்": 2662,
      "அளவுக்கு": 2663,
      "ஆன்": 2664,
      "டூ": 2665,
      "ரையில்": 2666,
      "ஐடி": 2667,
      "க்கார": 2668,
      "ரவை": 2669,
      "ஏற்படுத்தியது": 2670,
      "மசோதா": 2671,
      "இசை": 2672,
      "கடுமையாக": 2673,
      "தட": 2674,
      "ியிட": 2675,
      "வணி": 2676,
      "ல்கத்தா": 2677,
      "ராமன்": 2678,
      "எல்லை": 2679,
      "ந்திரு": 2680,
      "உடலை": 2681,
      "ஏப்": 2682,
      "அதிகரி": 2683,
      "குறு": 2684,
      "குறிப்பாக": 2685,
      "ஸி": 2686,
      "எக்ஸ்பிரஸ்": 2687,
      "ரேஷன்": 2688,
      "பெற்றோ": 2689,
      "இடங்கள்": 2690,
      "நுட்ப": 2691,
      "கிறேன்": 2692,
      "இருந்தனர்": 2693,
      "வாஞ்சேரி": 2694,
      "கிறார்கள்": 2695,
      "கம்யூனி": 2696,
      "பிரிவில்": 2697,
      "கடன்": 2698,
      "உத்தரவிட்டார்": 2699,
      "அமர்": 2700,
      "ஷ்குமார்": 2701,
      "நோட்டு": 2702,
      "பலாத்காரம்": 2703,
      "கடிதம்": 2704,
      "வர்களும்": 2705,
      "யத்தில்": 2706,
      "க்கர்": 2707,
      "ஸ்தான்": 2708,
      "சரவண": 2709,
      "சிறிது": 2710,
      "வாக்கம்": 2711,
      "இணைந்து": 2712,
      "சப்": 2713,
      "தனிப்படை": 2714,
      "வழங்கு": 2715,
      "அம்மா": 2716,
      "உடைத்து": 2717,
      "முன்னதாக": 2718,
      "டிரா": 2719,
      "ராகி": 2720,
      "சிறப்பாக": 2721,
      "சரமாரியாக": 2722,
      "மாநிலங்களில்": 2723,
      "ள்ளா": 2724,
      "புய": 2725,
      "உள்ளாட்சி": 2726,
      "வடக்கு": 2727,
      "மைதான": 2728,
      "சீனி": 2729,
      "இந்தியாவில்": 2730,
      "ஆதி": 2731,
      "முடியாத": 2732,
      "வதில்லை": 2733,
      "செலுத்த": 2734,
      "வருவாய்": 2735,
      "வெள்ளி": 2736,
      "கணே": 2737,
      "விசாரித்தனர்": 2738,
      "முன்னிட்டு": 2739,
      "முகமது": 2740,
      "தம்ப": 2741,
      "ராஷ்டி": 2742,
      "ப்பும்": 2743,
      "கும்ப": 2744,
      "மல்ல": 2745,
      "மட": 2746,
      "பலியா": 2747,
      "சத்தம்": 2748,
      "ள்ளதால்": 2749,
      "அதிர்ச்சியடை": 2750,
      "விசாரித்த": 2751,
      "ஆடி": 2752,
      "இன்ஜினிய": 2753,
      "தகவல்கள்": 2754,
      "நள்ளிரவு": 2755,
      "தூத்துக்குடி": 2756,
      "தய": 2757,
      "நாராய": 2758,
      "திருப்பூர்": 2759,
      "பிளஸ்": 2760,
      "கட்சிகள்": 2761,
      "புகாரின்": 2762,
      "உரிமையா": 2763,
      "நிவாரண": 2764,
      "விமானம்": 2765,
      "ஆசாமி": 2766,
      "மாணவர்": 2767,
      "ர்கு": 2768,
      "ஏழு": 2769,
      "அளித்து": 2770,
      "ஆம்": 2771,
      "புத்த": 2772,
      "வேல": 2773,
      "ந்தில்": 2774,
      "பைக்": 2775,
      "பெருமாள்": 2776,
      "ூரை": 2777,
      "தியான": 2778,
      "னாக": 2779,
      "ங்கினார்": 2780,
      "ஒதுக்கீடு": 2781,
      "வருவதாக": 2782,
      "மின்சாரம்": 2783,
      "வகை": 2784,
      "சுக்கு": 2785,
      "ஐகோர்ட்": 2786,
      "தங்கம்": 2787,
      "சாதனை": 2788,
      "பெயரில்": 2789,
      "பேரூ": 2790,
      "மையம்": 2791,
      "மீட்பு": 2792,
      "பெய்த": 2793,
      "இதற்கான": 2794,
      "தெரிவித்துள்ளனர்": 2795,
      "தயாரிக்க": 2796,
      "இப்பட": 2797,
      "ப்புற": 2798,
      "ழமை": 2799,
      "தொடரில்": 2800,
      "பூங்கா": 2801,
      "தெரிவித்துள்ளது": 2802,
      "கப்ப": 2803,
      "ஜூன்": 2804,
      "எல்லா": 2805,
      "கீழே": 2806,
      "ஜனாதிபதி": 2807,
      "ஆர்கே": 2808,
      "ஏன்": 2809,
      "வழங்கப்பட்டது": 2810,
      "ன்கள்": 2811,
      "மீதான": 2812,
      "ையாது": 2813,
      "புதி": 2814,
      "கடத்த": 2815,
      "ப்பட்டி": 2816,
      "பெட்ரோல்": 2817,
      "நவ": 2818,
      "ஆகியோரை": 2819,
      "அன்ப": 2820,
      "காதல": 2821,
      "இடைத்தேர்த": 2822,
      "முர": 2823,
      "ன்னு": 2824,
      "ந்துள்ளனர்": 2825,
      "இதேபோல்": 2826,
      "சந்தேக": 2827,
      "ஹீரோயி": 2828,
      "அமைத்து": 2829,
      "விழுப்பு": 2830,
      "குஜரா": 2831,
      "வலு": 2832,
      "பேரா": 2833,
      "ந்திருந்த": 2834,
      "பராம": 2835,
      "ப்பிடி": 2836,
      "உற்ச": 2837,
      "ியர்": 2838,
      "எங்கள்": 2839,
      "வடை": 2840,
      "அறிக்கையில்": 2841,
      "பாலியல்": 2842,
      "பெரம்": 2843,
      "ப்பின்": 2844,
      "வகித்தார்": 2845,
      "ோடு": 2846,
      "மாணவர்களுக்கு": 2847,
      "சண்": 2848,
      "்கிறது": 2849,
      "சொந்தமான": 2850,
      "பின்ன": 2851,
      "இவர்களுக்கு": 2852,
      "டாக்டர்கள்": 2853,
      "கேட்க": 2854,
      "போலி": 2855,
      "மங்கலம்": 2856,
      "ரஷ": 2857,
      "மூட": 2858,
      "வலி": 2859,
      "தூக்கி": 2860,
      "பாஸ்க": 2861,
      "இதைத்": 2862,
      "மகிழ": 2863,
      "மறிய": 2864,
      "சுட்டு": 2865,
      "விடிய": 2866,
      "மக்களவை": 2867,
      "மித்": 2868,
      "உயர்வு": 2869,
      "கல்லூரியில்": 2870,
      "ஜோடி": 2871,
      "ல்களை": 2872,
      "தீயணைப்பு": 2873,
      "தள்ளி": 2874,
      "கணி": 2875,
      "உட்ப": 2876,
      "விசாரிக்கின்றனர்": 2877,
      "தேவி": 2878,
      "அய": 2879,
      "போட்டிகளில்": 2880,
      "ப்பிரி": 2881,
      "தண்ணீ": 2882,
      "கிடையாது": 2883,
      "மறியல்": 2884,
      "நேரில்": 2885,
      "அளித்தார்": 2886,
      "வாக்களி": 2887,
      "சுப்பிரமணிய": 2888,
      "மயி": 2889,
      "ஆஸ்திரேலியா": 2890,
      "சம்பளம்": 2891,
      "லர்": 2892,
      "எடப்பாடி": 2893,
      "தைய": 2894,
      "டுகிறது": 2895,
      "மதியம்": 2896,
      "ற்றா": 2897,
      "டுகள்": 2898,
      "சென்றது": 2899,
      "மஞ்ச": 2900,
      "ப்பதற்காக": 2901,
      "புரத்தில்": 2902,
      "பொருட்களை": 2903,
      "கூறியிரு": 2904,
      "வனி": 2905,
      "சங்கர்": 2906,
      "தலில்": 2907,
      "பிஷே": 2908,
      "நின்று": 2909,
      "வாழ்த்து": 2910,
      "கொடுத்தார்": 2911,
      "சீனா": 2912,
      "பிசி": 2913,
      "முடிந்து": 2914,
      "மறுத்து": 2915,
      "நபர்கள்": 2916,
      "மதிப்பெ": 2917,
      "விசாரிக்க": 2918,
      "ஊத்துக்கோட்டை": 2919,
      "ஆளு": 2920,
      "முடிந்த": 2921,
      "ியிலும்": 2922,
      "மார்க்க": 2923,
      "முதல": 2924,
      "ங்குகிறது": 2925,
      "பயங்கர": 2926,
      "தவற": 2927,
      "டிஎம்": 2928,
      "மையை": 2929,
      "கையி": 2930,
      "மூன்று": 2931,
      "ஊழியர்": 2932,
      "ஆட்டம்": 2933,
      "கொல்கத்தா": 2934,
      "ர்களில்": 2935,
      "சரியாக": 2936,
      "கோப்பை": 2937,
      "அச்ச": 2938,
      "முட": 2939,
      "தெரிந்தது": 2940,
      "கொண்டிரு": 2941,
      "குற்றவா": 2942,
      "தள்ளு": 2943,
      "குழுவினர்": 2944,
      "வதற்கான": 2945,
      "ப்பதை": 2946,
      "ையார்": 2947,
      "க்குமா": 2948,
      "ன்கு": 2949,
      "பெற்றது": 2950,
      "அணிக்கு": 2951,
      "தனியாக": 2952,
      "வளாகத்தில்": 2953,
      "இருக்கிறார்": 2954,
      "மேற்கொண்டு": 2955,
      "பெரும்பாலான": 2956,
      "பணிகளை": 2957,
      "கிடந்த": 2958,
      "எதிர்க்கட்சி": 2959,
      "னாமா": 2960,
      "பஸ்கள்": 2961,
      "மாய": 2962,
      "கடற்ப": 2963,
      "ரெட்டி": 2964,
      "அறிவு": 2965,
      "சையில்": 2966,
      "கேமரா": 2967,
      "ஆராய": 2968,
      "நீடி": 2969,
      "சும்": 2970,
      "டியும்": 2971,
      "வேகமாக": 2972,
      "வேட்பு": 2973,
      "ன்றித": 2974,
      "மகாராஷ்டி": 2975,
      "ம்கா": 2976,
      "கம்யூனிஸ்ட்": 2977,
      "ஐபி": 2978,
      "மைப்பு": 2979,
      "இந்து": 2980,
      "உருவாக": 2981,
      "நேர்": 2982,
      "தாய": 2983,
      "அணியில்": 2984,
      "அரை": 2985,
      "ராகுல்": 2986,
      "முதல்வராக": 2987,
      "எடுக்கப்படும்": 2988,
      "ரஜினி": 2989,
      "திருவிழா": 2990,
      "கர்நாடகா": 2991,
      "த்திட்ட": 2992,
      "அமல்": 2993,
      "கதை": 2994,
      "பிளா": 2995,
      "ர்களுடன்": 2996,
      "ொற்றிய": 2997,
      "அன்று": 2998,
      "காட்ட": 2999,
      "விவகாரத்தில்": 3000,
      "பிரதி": 3001,
      "தேசம்": 3002,
      "ையின": 3003,
      "ஒழு": 3004,
      "புதுக்கோட்டை": 3005,
      "நிற": 3006,
      "பாடி": 3007,
      "தலைமறை": 3008,
      "பத்": 3009,
      "ரமேஷ்": 3010,
      "தொகை": 3011,
      "னுடன்": 3012,
      "கொடுத்தனர்": 3013,
      "ரால்": 3014,
      "பிரமுக": 3015,
      "வாச": 3016,
      "குண": 3017,
      "படுத்தி": 3018,
      "இம்": 3019,
      "க்கர": 3020,
      "உருவா": 3021,
      "காதலி": 3022,
      "திட்டத்தை": 3023,
      "உத்தரவிட": 3024,
      "வாக்குப்பதிவு": 3025,
      "ஹ்": 3026,
      "ஆட்சியில்": 3027,
      "போதும்": 3028,
      "ம்தான்": 3029,
      "நம்பிக்கை": 3030,
      "சான்றித": 3031,
      "வைத்திரு": 3032,
      "வீடியோ": 3033,
      "கரை": 3034,
      "டர்ந்து": 3035,
      "தீபா": 3036,
      "த்திரை": 3037,
      "இழு": 3038,
      "திருவண்ணா": 3039,
      "செயல்பட்டு": 3040,
      "ல்லாம்": 3041,
      "ப்பதில்": 3042,
      "ராஜினாமா": 3043,
      "ஏப்ரல்": 3044,
      "கூலி": 3045,
      "வீரா": 3046,
      "ப்படுகின்றன": 3047,
      "ராட்சியில்": 3048,
      "வீட்டை": 3049,
      "நிறுவனங்கள்": 3050,
      "செய்துள்ளார்": 3051,
      "பொன்": 3052,
      "ப்பணி": 3053,
      "நிகழ்ச்சியில்": 3054,
      "அகி": 3055,
      "தியு": 3056,
      "விளை": 3057,
      "கட்டா": 3058,
      "விடுமுறை": 3059,
      "அனைத்தும்": 3060,
      "ழும்": 3061,
      "வரவேற்ற": 3062,
      "நோய": 3063,
      "சேத": 3064,
      "லோக": 3065,
      "பார்வையி": 3066,
      "மிடி": 3067,
      "ரோட்டில்": 3068,
      "ஆர்ப்பாட்டம்": 3069,
      "தாலு": 3070,
      "பாண்டியன்": 3071,
      "மின்றி": 3072,
      "விழுப்புரம்": 3073,
      "செய்யப்படும்": 3074,
      "ஆண்டில்": 3075,
      "ற்கை": 3076,
      "அனுப": 3077,
      "பொருளாளர்": 3078,
      "சிரம": 3079,
      "செம்": 3080,
      "எப்போது": 3081,
      "தாக்க": 3082,
      "நடிக்கும்": 3083,
      "ராஜேந்திரன்": 3084,
      "சாம": 3085,
      "மார்ச்": 3086,
      "அக்": 3087,
      "ஒருங்கி": 3088,
      "தீர்ப்பு": 3089,
      "நடத்தினார்": 3090,
      "வழங்கும்": 3091,
      "அதிகார": 3092,
      "ஷீ": 3093,
      "தெலுங்கு": 3094,
      "ப்பூண்டி": 3095,
      "ஆட": 3096,
      "பயண": 3097,
      "அர்": 3098,
      "பேருந்து": 3099,
      "னார்கள்": 3100,
      "அடைத்தனர்": 3101,
      "வரில்": 3102,
      "பேசியதாவது": 3103,
      "நாத": 3104,
      "ங்களாம்": 3105,
      "தரிசனம்": 3106,
      "தம்பி": 3107,
      "அவர்களிடம்": 3108,
      "தாலுகா": 3109,
      "மீட்டர்": 3110,
      "தாம்பரம்": 3111,
      "ஸ்தான": 3112,
      "க்கப்பட்டுள்ள": 3113,
      "புல": 3114,
      "மாகி": 3115,
      "ஆசிரியர்கள்": 3116,
      "நாட்டின்": 3117,
      "வேலைக்கு": 3118,
      "பூந்த": 3119,
      "நாராயண": 3120,
      "மார்க": 3121,
      "பெய்து": 3122,
      "தொழில்நுட்ப": 3123,
      "விளக்கு": 3124,
      "டிசம்ப": 3125,
      "ல்களில்": 3126,
      "வேளா": 3127,
      "குடியிருப்பு": 3128,
      "ளர்களுக்கு": 3129,
      "காம": 3130,
      "என்றால்": 3131,
      "இயக்குன": 3132,
      "தினகரன்": 3133,
      "ம்தா": 3134,
      "பிறப்பி": 3135,
      "லிங்கம்": 3136,
      "தலைவராக": 3137,
      "ம்பர": 3138,
      "அளவு": 3139,
      "பொற": 3140,
      "சுரேஷ்": 3141,
      "னோ": 3142,
      "ட்டிரு": 3143,
      "ப்பதால்": 3144,
      "களால்": 3145,
      "சிங்க": 3146,
      "கண்டுபிடிக்க": 3147,
      "இண்ட": 3148,
      "க்கொள்ள": 3149,
      "ப்பட்டுள்ளன": 3150,
      "கோயிலுக்கு": 3151,
      "சந்தேகம்": 3152,
      "வனந்த": 3153,
      "தெருவில்": 3154,
      "அறிந்து": 3155,
      "செயி": 3156,
      "விற்க": 3157,
      "வளை": 3158,
      "ர்களாக": 3159,
      "ம்தே": 3160,
      "அறிமுக": 3161,
      "வளி": 3162,
      "கண்காணிப்பு": 3163,
      "நன்றி": 3164,
      "தினம்": 3165,
      "ண்ணை": 3166,
      "வேலு": 3167,
      "பரிந்து": 3168,
      "சொல்லி": 3169,
      "சிறுமி": 3170,
      "நடிக": 3171,
      "நடக்க": 3172,
      "விக்கெ": 3173,
      "ஞா": 3174,
      "புதிதாக": 3175,
      "ர்களா": 3176,
      "நொ": 3177,
      "லெ": 3178,
      "ஹி": 3179,
      "மின்சார": 3180,
      "வூர்": 3181,
      "செலவு": 3182,
      "வெளியான": 3183,
      "செய்யப்பட்டனர்": 3184,
      "புறப்பட்டு": 3185,
      "ுக்காக": 3186,
      "பட்டியலில்": 3187,
      "கிரா": 3188,
      "கடைகள்": 3189,
      "வெடிகுண்டு": 3190,
      "ங்களுடன்": 3191,
      "மேற்கொண்ட": 3192,
      "சிறந்த": 3193,
      "பாட்டி": 3194,
      "விஸ்": 3195,
      "்யூ": 3196,
      "ஆண்டுகள்": 3197,
      "ச்சம்ப": 3198,
      "திருவாரூர்": 3199,
      "பல்கலைக்கழக": 3200,
      "தீவிரவாத": 3201,
      "சாய": 3202,
      "ண்ணன்": 3203,
      "ரிப்பு": 3204,
      "க்கப்பட்டுள்ளன": 3205,
      "கூறப்பட்டுள்ளது": 3206,
      "க்கப்பட்டார்": 3207,
      "நோட்ட": 3208,
      "அங்க": 3209,
      "ச்சல்": 3210,
      "ந்தூர்": 3211,
      "பொதுக்கூ": 3212,
      "நரேந்திர": 3213,
      "சஸ்பெ": 3214,
      "்பு": 3215,
      "நெரு": 3216,
      "இப்படி": 3217,
      "ன்த": 3218,
      "தொடக்க": 3219,
      "அன்ன": 3220,
      "அகற்ற": 3221,
      "சிறுத்தை": 3222,
      "முடித்து": 3223,
      "தேர்ந்த": 3224,
      "போன்று": 3225,
      "கிண": 3226,
      "ஆக்கிர": 3227,
      "சடலத்தை": 3228,
      "சோனியா": 3229,
      "இறு": 3230,
      "வக": 3231,
      "ஈடுபட்டுள்ளனர்": 3232,
      "ஆக்கிரமி": 3233,
      "அழைப்பு": 3234,
      "டியூ": 3235,
      "தானம்": 3236,
      "ச்சர்": 3237,
      "மூழ": 3238,
      "வாடி": 3239,
      "ரியும்": 3240,
      "கடலில்": 3241,
      "புள்ளி": 3242,
      "சொல்": 3243,
      "கிறி": 3244,
      "விட்டதாக": 3245,
      "ந்தன்": 3246,
      "வித்தியா": 3247,
      "பிற்ப": 3248,
      "ஏழை": 3249,
      "்கோ": 3250,
      "ஞர்": 3251,
      "ரசி": 3252,
      "ந்திய": 3253,
      "எழுதி": 3254,
      "ிருவள்ளூர்": 3255,
      "மான்": 3256,
      "சூழ": 3257,
      "அப்து": 3258,
      "பயிற்ச": 3259,
      "விழுந்த": 3260,
      "கடலூர்": 3261,
      "பேரையும்": 3262,
      "லண்ட": 3263,
      "கூடுவாஞ்சேரி": 3264,
      "சகோ": 3265,
      "பத்திரி": 3266,
      "செயலாளர்கள்": 3267,
      "பொருத்த": 3268,
      "பொன்னேரி": 3269,
      "கணக்கு": 3270,
      "ச்சந்திரன்": 3271,
      "நம்": 3272,
      "ஏற்ற": 3273,
      "படையினர்": 3274,
      "தேர்ந்தெ": 3275,
      "பேடு": 3276,
      "தீர்வு": 3277,
      "சங்கம்": 3278,
      "பேரூராட்சி": 3279,
      "முதலீ": 3280,
      "மண்ண": 3281,
      "ஆடு": 3282,
      "ியின": 3283,
      "பரிசோதனைக்காக": 3284,
      "ஆயிரக்கணக்கான": 3285,
      "விக்": 3286,
      "அங்கிருந்த": 3287,
      "்கிறேன்": 3288,
      "குப்பை": 3289,
      "க்கப்பட்டனர்": 3290,
      "வாட": 3291,
      "வரவில்லை": 3292,
      "கடத்தல்": 3293,
      "திரை": 3294,
      "ாக்": 3295,
      "ிருஷ்ண": 3296,
      "பன்னீர்செல்வம்": 3297,
      "மாஜி": 3298,
      "ரிக்கா": 3299,
      "தொழிற்சா": 3300,
      "கான்": 3301,
      "காலத்தில்": 3302,
      "இருப்பதால்": 3303,
      "இணையதள": 3304,
      "ப்பதற்கு": 3305,
      "சேர்த்தனர்": 3306,
      "திறக்க": 3307,
      "ரையும்": 3308,
      "டிஜி": 3309,
      "பிப்": 3310,
      "ரன்ன": 3311,
      "செய்வது": 3312,
      "கூறும்போது": 3313,
      "உள்துறை": 3314,
      "ங்களையும்": 3315,
      "இதுபோன்ற": 3316,
      "ஆதரவாக": 3317,
      "விஜயகாந்த்": 3318,
      "பரிசு": 3319,
      "ஷூட்டிங்": 3320,
      "பிரகாஷ்": 3321,
      "எங்களுக்கு": 3322,
      "சியா": 3323,
      "டில்": 3324,
      "ஜல்லி": 3325,
      "தெரியவில்லை": 3326,
      "துணி": 3327,
      "வாளர்": 3328,
      "வாண": 3329,
      "தாம": 3330,
      "செய்திரு": 3331,
      "மேட்டூர்": 3332,
      "வெளியில்": 3333,
      "வெஸ்ட்": 3334,
      "விழுந்து": 3335,
      "ொற்றியூர்": 3336,
      "பெற்றி": 3337,
      "புதூர்": 3338,
      "திகள்": 3339,
      "ியூ": 3340,
      "குந்த": 3341,
      "விற்கு": 3342,
      "முல்லை": 3343,
      "வளவு": 3344,
      "ஐதராபாத்": 3345,
      "கருப்பு": 3346,
      "பாகிஸ்தான": 3347,
      "மயிலா": 3348,
      "உயர": 3349,
      "வத": 3350,
      "தொகுதிகளில்": 3351,
      "வாரியம்": 3352,
      "விடுத்த": 3353,
      "கோஷ": 3354,
      "ஜனதா": 3355,
      "ஞ்": 3356,
      "தாரண": 3357,
      "ஒருநாள்": 3358,
      "ட்டுப்பா": 3359,
      "நிர்ண": 3360,
      "ஞான": 3361,
      "ம்மன்": 3362,
      "க்கிறா": 3363,
      "இளம்பெண்": 3364,
      "வெள்ளத்தில்": 3365,
      "ஆங்கி": 3366,
      "உயிர்": 3367,
      "பழு": 3368,
      "பட்டியல்": 3369,
      "பொறுப்பு": 3370,
      "வேள": 3371,
      "உத்தரவிட்டது": 3372,
      "எளி": 3373,
      "ஜூலை": 3374,
      "ல்த": 3375,
      "போய்": 3376,
      "விமர்": 3377,
      "மேற்பட்டோர்": 3378,
      "ஜான்": 3379,
      "காப்பா": 3380,
      "னியில்": 3381,
      "புகை": 3382,
      "தயார்": 3383,
      "நாட்களில்": 3384,
      "ன்டி": 3385,
      "எதிர்பார்க்கப்படுகிறது": 3386,
      "பிரியா": 3387,
      "மனுவை": 3388,
      "சபாநாயகர்": 3389,
      "அதிகள": 3390,
      "டிசம்பர்": 3391,
      "ஒத்தி": 3392,
      "டமும்": 3393,
      "இடத்தை": 3394,
      "மதுரா": 3395,
      "பூந்தமல்லி": 3396,
      "முள்ள": 3397,
      "மோதியது": 3398,
      "உட்பட்ட": 3399,
      "அப்படி": 3400,
      "எனி": 3401,
      "டெக்": 3402,
      "அடிப்படை": 3403,
      "உடன்": 3404,
      "நீல": 3405,
      "எனினும்": 3406,
      "சாவு": 3407,
      "தலாக": 3408,
      "திருவண்ணாமலை": 3409,
      "பாச": 3410,
      "படுகாய": 3411,
      "அவர்களது": 3412,
      "அஞ்சலி": 3413,
      "லீக்": 3414,
      "இருந்தாலும்": 3415,
      "வீழ்த்தி": 3416,
      "இவருக்கு": 3417,
      "சட்டப்பே": 3418,
      "ஒருங்கிணை": 3419,
      "மைதானத்தில்": 3420,
      "ஸ்கா": 3421,
      "பதவியே": 3422,
      "போதை": 3423,
      "வரவேற்பு": 3424,
      "விளக்கம்": 3425,
      "வசூலி": 3426,
      "சத்திய": 3427,
      "புதுச்சேரி": 3428,
      "நிலம்": 3429,
      "மிரட்டி": 3430,
      "அசோ": 3431,
      "படும்": 3432,
      "பிரபு": 3433,
      "பதற்றம்": 3434,
      "கம்பெனி": 3435,
      "மிடிப்பூண்டி": 3436,
      "வெளியிட்டுள்ள": 3437,
      "ணர்வு": 3438,
      "ஜனநாயக": 3439,
      "வழியில்": 3440,
      "கவுன்சிலர்": 3441,
      "காய்ச்சல்": 3442,
      "மனைவ": 3443,
      "மாதங்களுக்கு": 3444,
      "தயாராக": 3445,
      "பங்கு": 3446,
      "ஜன்": 3447,
      "டுக்கி": 3448,
      "உள்ளதாக": 3449,
      "ரையா": 3450,
      "மிரட்டல்": 3451,
      "க்கட்ட": 3452,
      "நாம்": 3453,
      "இடத்திலேயே": 3454,
      "ர்திரு": 3455,
      "முன்னிலையில்": 3456,
      "ராணி": 3457,
      "ராவ்": 3458,
      "வியது": 3459,
      "அப்பா": 3460,
      "இல்லாததால்": 3461,
      "தள்ளுபடி": 3462,
      "தந்த": 3463,
      "ப்பட்டுள்ள": 3464,
      "பேராசிரிய": 3465,
      "குறித்தும்": 3466,
      "சரவணன்": 3467,
      "இறங்கி": 3468,
      "ஆயுத": 3469,
      "தொடர": 3470,
      "சித்த": 3471,
      "ற்றின்": 3472,
      "இளங்கோ": 3473,
      "அட்டை": 3474,
      "கட்டமாக": 3475,
      "போராடி": 3476,
      "எனவும்": 3477,
      "ம்திரு": 3478,
      "கொடி": 3479,
      "பருவ": 3480,
      "தேர்தலை": 3481,
      "நவீன": 3482,
      "அறையில்": 3483,
      "நாமக்க": 3484,
      "ச்சியில்": 3485,
      "எழுந்துள்ளது": 3486,
      "தெரியவந்துள்ளது": 3487,
      "ஜனவரி": 3488,
      "திருட்டு": 3489,
      "உள்": 3490,
      "வருகிறார்கள்": 3491,
      "த்ரி": 3492,
      "சாட்ட": 3493,
      "அல்": 3494,
      "அபரா": 3495,
      "திருப்பி": 3496,
      "தங்கி": 3497,
      "இயந்திர": 3498,
      "சிலி": 3499,
      "த்திற்க": 3500,
      "க்கணி": 3501,
      "சமாஜ்": 3502,
      "க்கிறோம்": 3503,
      "கலா": 3504,
      "நடத்தப்பட்டது": 3505,
      "பிடித்தனர்": 3506,
      "டோனி": 3507,
      "அடைந்தார்": 3508,
      "மகாராஷ்டிரா": 3509,
      "த்ததால்": 3510,
      "நல்லூர்": 3511,
      "அடையா": 3512,
      "அதற்கான": 3513,
      "நட்ச": 3514,
      "நாடுகளில்": 3515,
      "கொண்டாட": 3516,
      "விதிமுறை": 3517,
      "பான்": 3518,
      "மார்க்சி": 3519,
      "இச்சம்ப": 3520,
      "ச்சாமி": 3521,
      "மலையில்": 3522,
      "ியாகு": 3523,
      "பஞ்சாப்": 3524,
      "வழக்குகள்": 3525,
      "நோயா": 3526,
      "தொண்டர்கள்": 3527,
      "பெற்றார்": 3528,
      "ப்பள்ளி": 3529,
      "நடிக்கிறார்": 3530,
      "போட்டியிடு": 3531,
      "முறைகேடு": 3532,
      "பரிசீ": 3533,
      "தமிழகம்ப": 3534,
      "வீடுகளில்": 3535,
      "நியூசி": 3536,
      "ந்தர": 3537,
      "மேல்நிலை": 3538,
      "நிலையத்துக்கு": 3539,
      "விரோத": 3540,
      "ஜாமீன்": 3541,
      "வகித்தனர்": 3542,
      "வித்தியாச": 3543,
      "திருவனந்த": 3544,
      "மரியா": 3545,
      "காத்திரு": 3546,
      "இந்தியாவின்": 3547,
      "வாழ்க்கை": 3548,
      "ஆழ": 3549,
      "வற": 3550,
      "நெடுஞ்சாலை": 3551,
      "பெரி": 3552,
      "வசிக்கும்": 3553,
      "மறியலில்": 3554,
      "ியிருந்தார்": 3555,
      "ஊர்வல": 3556,
      "குற": 3557,
      "ன்டர்": 3558,
      "வீடுகள்": 3559,
      "ஆணையர்": 3560,
      "மார்க்சிஸ்ட்": 3561,
      "ன்கா": 3562,
      "வேண்டாம்": 3563,
      "வாலா": 3564,
      "இருக்கா": 3565,
      "ஒளி": 3566,
      "வீட்டிற்கு": 3567,
      "மறுநாள்": 3568,
      "வேட்பாளர்கள்": 3569,
      "பரிந்துரை": 3570,
      "ஒலி": 3571,
      "நண்பர்கள்": 3572,
      "ஆகியவற்றை": 3573,
      "ாலி": 3574,
      "ரிங்": 3575,
      "பெட்டி": 3576,
      "குடித்து": 3577,
      "சேர்ந்தவர்கள்": 3578,
      "கூறியது": 3579,
      "பயன்": 3580,
      "வூ": 3581,
      "சோதனையில்": 3582,
      "ப்பிரிவு": 3583,
      "செங்கு": 3584,
      "ள்ளை": 3585,
      "கொல": 3586,
      "வணிக": 3587,
      "வெட்டு": 3588,
      "மென்ட்": 3589,
      "நிருபர்களிடம்": 3590,
      "எச்சரிக்கை": 3591,
      "ப்படுத்தும்": 3592,
      "படங்கள்": 3593,
      "மெட்": 3594,
      "செலுத்தி": 3595,
      "நடத்தப்படும்": 3596,
      "்கிறார்கள்": 3597,
      "சீரமை": 3598,
      "ஒப்பந்தம்": 3599,
      "நிறைவே": 3600,
      "டென்னி": 3601,
      "கண்": 3602,
      "வேண்ட": 3603,
      "ியாளர்கள்": 3604,
      "மக்களிடம்": 3605,
      "விழிப்பு": 3606,
      "குடும்பத்தினர்": 3607,
      "மனம்": 3608,
      "த்துள்ளனர்": 3609,
      "பெங்களூ": 3610,
      "முற்றுகையி": 3611,
      "ஜல்லிக்க": 3612,
      "பங்க": 3613,
      "வருவதால்": 3614,
      "புண": 3615,
      "அழி": 3616,
      "ஸ்வரி": 3617,
      "பணியிட": 3618,
      "வந்துள்ளார்": 3619,
      "உத்திர": 3620,
      "மாண்ட": 3621,
      "பவுண்ட": 3622,
      "வெளியாகி": 3623,
      "மதுராந்த": 3624,
      "ஏர்": 3625,
      "கடற்கரை": 3626,
      "க்டோ": 3627,
      "நித": 3628,
      "சஸ்பெண்ட்": 3629,
      "மம்தா": 3630,
      "ங்கியது": 3631,
      "தன்னை": 3632,
      "வினா": 3633,
      "ள்ளோம்": 3634,
      "அவசிய": 3635,
      "நகைகள்": 3636,
      "ேரியில்": 3637,
      "பொருள்": 3638,
      "போட்டியிட": 3639,
      "கைப்பற்ற": 3640,
      "இருந்தால்": 3641,
      "டெங்கு": 3642,
      "கொண்டிருந்தார்": 3643,
      "ப்பினர்": 3644,
      "மனுவில்": 3645,
      "நபர்": 3646,
      "பிரதம": 3647,
      "தாசில": 3648,
      "பதவியை": 3649,
      "அவர்களின்": 3650,
      "விளா": 3651,
      "ஆண்டுக்கு": 3652,
      "வேலைவாய்ப்பு": 3653,
      "த்திற்கும்": 3654,
      "எம்ஜி": 3655,
      "ஹீரோயின்": 3656,
      "பதில": 3657,
      "அதேபோல்": 3658,
      "வைக்கப்பட்டது": 3659,
      "பொருளாதார": 3660,
      "செயல்படுத்த": 3661,
      "நெரிச": 3662,
      "ம்தேதி": 3663,
      "இவ": 3664,
      "சேகரன்": 3665,
      "ெழு": 3666,
      "ஆன்லை": 3667,
      "குற்றவாளி": 3668,
      "அலி": 3669,
      "தகவலறி": 3670,
      "த்துக்காக": 3671,
      "வழங்கினார்": 3672,
      "பஸ்சில்": 3673,
      "ழகன்": 3674,
      "மிற": 3675,
      "அன்பு": 3676,
      "நேரங்களில்": 3677,
      "ரங்கம்": 3678,
      "மலா": 3679,
      "ரர்": 3680,
      "தீர்மானம்": 3681,
      "புறக்கணி": 3682,
      "பொறுப்பே": 3683,
      "தொகு": 3684,
      "அம்மன்": 3685,
      "கவலை": 3686,
      "களமிற": 3687,
      "மதிமுக": 3688,
      "உறவினர்": 3689,
      "முது": 3690,
      "வாசி": 3691,
      "வரலா": 3692,
      "எதிர்கட்சி": 3693,
      "கதா": 3694,
      "அட்ட": 3695,
      "ிருந்தனர்": 3696,
      "இலங்க": 3697,
      "கண்டனம்": 3698,
      "அமல்படுத்த": 3699,
      "வைத்த": 3700,
      "முழுமையாக": 3701,
      "காங்கிர": 3702,
      "மாநகர": 3703,
      "கூட்டுறவு": 3704,
      "அறிவித்துள்ளது": 3705,
      "கூட்டணியில்": 3706,
      "இரும்பு": 3707,
      "்குமா": 3708,
      "திண்டு": 3709,
      "போ": 3710,
      "ஆத்திர": 3711,
      "அசா": 3712,
      "நெல்": 3713,
      "அப்": 3714,
      "களுக்கான": 3715,
      "இருப்பி": 3716,
      "ரோந்து": 3717,
      "நிச்ச": 3718,
      "கொன்ற": 3719,
      "எல": 3720,
      "முஸ்": 3721,
      "தளம்": 3722,
      "சதீ": 3723,
      "தாங்கினார்": 3724,
      "அவருடன்": 3725,
      "கமல்": 3726,
      "சிவா": 3727,
      "நம்ப": 3728,
      "ப்பட்டிருந்தது": 3729,
      "இருவரையும்": 3730,
      "கோல்": 3731,
      "சீனிவாசன்": 3732,
      "்தார்": 3733,
      "த்துக்கும்": 3734,
      "ுடு": 3735,
      "ப்பய": 3736,
      "செயல்படு": 3737,
      "கத்தை": 3738,
      "ஆகியவை": 3739,
      "பட்டம்": 3740,
      "சரக்கு": 3741,
      "கடையில்": 3742,
      "கவனி": 3743,
      "வேண்டுமெ": 3744,
      "ோதைய": 3745,
      "வரிசையில்": 3746,
      "சொன்ன": 3747,
      "வீசிய": 3748,
      "நீங்கள்": 3749,
      "பேரவை": 3750,
      "செப்ட": 3751,
      "குஜராத்": 3752,
      "கிளை": 3753,
      "மூன்ற": 3754,
      "வாயில்": 3755,
      "வருவது": 3756,
      "கரூர்": 3757,
      "விவரம்": 3758,
      "போட்டிகள்": 3759,
      "ரிலீ": 3760,
      "ராதாக": 3761,
      "க்கிழமை": 3762,
      "நாயுடு": 3763,
      "சிட்": 3764,
      "க்கப்படுகிறது": 3765,
      "பிரதிநிதி": 3766,
      "ஆசை": 3767,
      "கோரிக்கைகளை": 3768,
      "ஓய்": 3769,
      "மேடு": 3770,
      "வயி": 3771,
      "்சர்": 3772,
      "ராமதாஸ்": 3773,
      "ஆயிரத்துக்கும்": 3774,
      "சந்திக்க": 3775,
      "கட்சியினர்": 3776,
      "நாகர்கோ": 3777,
      "ராதாகிருஷ்ண": 3778,
      "அவற்றை": 3779,
      "முன்னணி": 3780,
      "சிதம்பரம்": 3781,
      "மினி": 3782,
      "வாளர்கள்": 3783,
      "நிறுவனத்தில்": 3784,
      "ஜார்": 3785,
      "வாடகை": 3786,
      "றல்": 3787,
      "சுத": 3788,
      "வந்தபோது": 3789,
      "விஷய": 3790,
      "கோபால்": 3791,
      "தேர்ச்சி": 3792,
      "ஆளும்": 3793,
      "மேம்பா": 3794,
      "ஒன்றில்": 3795,
      "கடலோ": 3796,
      "பெய்ய": 3797,
      "ாண்டு": 3798,
      "முத்த": 3799,
      "ராமே": 3800,
      "அதனை": 3801,
      "ஏக்கர்": 3802,
      "பின்ப": 3803,
      "றியியல்": 3804,
      "அரிசி": 3805,
      "ராஜஸ்தான்": 3806,
      "டியு": 3807,
      "தியும்": 3808,
      "கொள்க": 3809,
      "தோறும்": 3810,
      "வர்களில்": 3811,
      "பண்டி": 3812,
      "காலமாக": 3813,
      "மின்ன": 3814,
      "வீராங்க": 3815,
      "கொள்ளலாம்": 3816,
      "வட்டாரங்கள்": 3817,
      "வீச": 3818,
      "ஆகியவ": 3819,
      "க்கப்பட்டன": 3820,
      "தடுத்து": 3821,
      "தவறு": 3822,
      "சாரி": 3823,
      "சென்னைக்கு": 3824,
      "சத்து": 3825,
      "தாம்": 3826,
      "போராட்டத்தை": 3827,
      "டீசல்": 3828,
      "வெற்ற": 3829,
      "ப்பதாவது": 3830,
      "த்துறையினர்": 3831,
      "அருண்": 3832,
      "சச்சி": 3833,
      "ரப்பா": 3834,
      "காப்ப": 3835,
      "ப்புகள்": 3836,
      "த்திருந்தார்": 3837,
      "மண்": 3838,
      "போன்": 3839,
      "மன்னா": 3840,
      "குறிப்பிட்ட": 3841,
      "அளித்தனர்": 3842,
      "திருவொற்றியூர்": 3843,
      "ஈடுபடு": 3844,
      "எடுக்கவில்லை": 3845,
      "பள்ளிக்கு": 3846,
      "மையில்": 3847,
      "விரும்பு": 3848,
      "புரிந்து": 3849,
      "சேனா": 3850,
      "பட்ஜெட்": 3851,
      "த்திலிருந்து": 3852,
      "நாமக்கல்": 3853,
      "ண்டில்": 3854,
      "பிப்ர": 3855,
      "இருந்தும்": 3856,
      "புறம்": 3857,
      "க்ட்": 3858,
      "கூடுதலாக": 3859,
      "பியா": 3860,
      "ஷ்ணா": 3861,
      "தனக்கு": 3862,
      "டல்": 3863,
      "வீச்சா": 3864,
      "நள்ளிர": 3865,
      "பட்டாசு": 3866,
      "விசை": 3867,
      "எண்ணெய்": 3868,
      "குடும்பத்தின": 3869,
      "ரசிகர்கள்": 3870,
      "இழந்து": 3871,
      "இயக்கம்": 3872,
      "அதன்பின்": 3873,
      "தரப்பு": 3874,
      "முயற்ச": 3875,
      "அடங்கிய": 3876,
      "உள்ளதால்": 3877,
      "க்டர்": 3878,
      "ஜ்ரி": 3879,
      "சூடு": 3880,
      "முரளி": 3881,
      "டென்னிஸ்": 3882,
      "ஆண்டுகளில்": 3883,
      "எண்": 3884,
      "ன்சி": 3885,
      "செய்யப்படுகிறது": 3886,
      "சம்பவங்கள்": 3887,
      "சக்கர": 3888,
      "மணிகண்ட": 3889,
      "பெண்ண": 3890,
      "சிறிய": 3891,
      "வரிடம்": 3892,
      "கடித": 3893,
      "முடிவில்": 3894,
      "மேல": 3895,
      "வாக்குகள்": 3896,
      "மலையா": 3897,
      "இளைஞர்கள்": 3898,
      "தரப்பின": 3899,
      "கோபி": 3900,
      "ஐகோர்ட்டில்": 3901,
      "ப்படா": 3902,
      "காலையில்": 3903,
      "தர்மபுரி": 3904,
      "முனை": 3905,
      "காசம்": 3906,
      "ியானா": 3907,
      "பவர்கள்": 3908,
      "ையு": 3909,
      "த்திடம்": 3910,
      "பொறியியல்": 3911,
      "தவிர்க்க": 3912,
      "கட்சியை": 3913,
      "கடலோர": 3914,
      "கொண்டது": 3915,
      "கூறியிருப்பதாவது": 3916,
      "நோட்டீஸ்": 3917,
      "சார": 3918,
      "நள்ளிரவில்": 3919,
      "ரயிலில்": 3920,
      "கவுன்சில": 3921,
      "முற்றி": 3922,
      "பிடித்த": 3923,
      "பாரம்": 3924,
      "த்திருக்கிறார்": 3925,
      "பணியை": 3926,
      "முதன்மை": 3927,
      "க்குறி": 3928,
      "டெல்": 3929,
      "லைகள்": 3930,
      "கடுமையான": 3931,
      "வாக்காளர்": 3932,
      "ஆனாலும்": 3933,
      "கவிழ": 3934,
      "எடுத்துக்": 3935,
      "காஷ்மீர்": 3936,
      "வாக்குவாதம்": 3937,
      "பள்ளிகளில்": 3938,
      "போதிய": 3939,
      "மேன": 3940,
      "ஆத்": 3941,
      "ஆரம்பி": 3942,
      "இளைஞர்": 3943,
      "நிபுண": 3944,
      "அறிந்த": 3945,
      "நடத்துவ": 3946,
      "வாயல்": 3947,
      "மதுராந்தகம்": 3948,
      "ஏறி": 3949,
      "படத்துக்கு": 3950,
      "அதிகபட்ச": 3951,
      "தாக்குதலில்": 3952,
      "தமிழில்": 3953,
      "ப்பார்கள்": 3954,
      "்க்கு": 3955,
      "மும்பையில்": 3956,
      "வாங்கிய": 3957,
      "தாக்கிய": 3958,
      "கோயம்": 3959,
      "உயிருக்கு": 3960,
      "வருகிறோம்": 3961,
      "எழுந்த": 3962,
      "ளிய": 3963,
      "டிக்கெட்": 3964,
      "உத்தரபிரதேச": 3965,
      "பசு": 3966,
      "த்தலை": 3967,
      "செயல்பட": 3968,
      "சாட்டி": 3969,
      "வெளிநாட்டு": 3970,
      "றாராம்": 3971,
      "ரயில்கள்": 3972,
      "ஆஸ்ப": 3973,
      "னேன்": 3974,
      "ுடைய": 3975,
      "இடத்திற்கு": 3976,
      "கெஜ்ரி": 3977,
      "முடிக்க": 3978,
      "எம்பிக்கள்": 3979,
      "பந்தில்": 3980,
      "புயல்": 3981,
      "பறக்கும்": 3982,
      "டிடிவி": 3983,
      "ியுள்ளன": 3984,
      "நாடுகள்": 3985,
      "வெளியேறி": 3986,
      "ஜெக": 3987,
      "ிருந்தார்": 3988,
      "நன்ற": 3989,
      "தேர்ந்தெடுக்க": 3990,
      "எழும்": 3991,
      "கோரிக்க": 3992,
      "சென்ட்": 3993,
      "ர்களி": 3994,
      "சுழ": 3995,
      "அரசை": 3996,
      "ஒழுங்கு": 3997,
      "பஞ்ச": 3998,
      "காணா": 3999,
      "ஏராளமானோர்": 4000,
      "மழையால்": 4001,
      "டிக்கு": 4002,
      "பாதை": 4003,
      "கும்மிடிப்பூண்டி": 4004,
      "அக்டோ": 4005,
      "தினங்களுக்கு": 4006,
      "காசி": 4007,
      "ஆர்டி": 4008,
      "பற்றிய": 4009,
      "ஏற்பாடுகள்": 4010,
      "மாதத்தில்": 4011,
      "இண்டீஸ்": 4012,
      "ஓவரில்": 4013,
      "காட்ச": 4014,
      "எப்": 4015,
      "உண்மை": 4016,
      "இரண்டா": 4017,
      "விட்": 4018,
      "ந்துள்ள": 4019,
      "சுற்ற": 4020,
      "சுற்றுப்பய": 4021,
      "விண்ணப்பிக்க": 4022,
      "சான்றிதழ்": 4023,
      "திண்டுக்கல்": 4024,
      "உயிரிழ": 4025,
      "வியாபாரிகள்": 4026,
      "போதையில்": 4027,
      "சிக்கிய": 4028,
      "தெரிவிக்கப்பட்டது": 4029,
      "ச்சில்": 4030,
      "வந்தால்": 4031,
      "ஐக்கிய": 4032,
      "சர்க்க": 4033,
      "சாய்": 4034,
      "வண்ண": 4035,
      "சிக்": 4036,
      "ஆல்": 4037,
      "அறிவியல்": 4038,
      "கொண்டிருந்தனர்": 4039,
      "சமு": 4040,
      "ப்போம்": 4041,
      "விளையாடி": 4042,
      "க்கூடிய": 4043,
      "அடு": 4044,
      "ஆண்": 4045,
      "தூக்கு": 4046,
      "ஏற்பட": 4047,
      "அதிகாரிகளுக்கு": 4048,
      "நட்சத்திர": 4049,
      "ியூர்": 4050,
      "அச": 4051,
      "ஜு": 4052,
      "உளவு": 4053,
      "புறநகர்": 4054,
      "பாரதி": 4055,
      "உத்தரவிட்டுள்ளது": 4056,
      "க்காத": 4057,
      "பறித்து": 4058,
      "கதவை": 4059,
      "சென்றபோது": 4060,
      "உத்திரமே": 4061,
      "கண்ணா": 4062,
      "ப்பட்டுள்ளனர்": 4063,
      "நினைவு": 4064,
      "வீதி": 4065,
      "ர்களுக்கும்": 4066,
      "அறிவித்தார்": 4067,
      "ச்சாவடி": 4068,
      "நிமிட": 4069,
      "அதிகளவில்": 4070,
      "கார": 4071,
      "சிசி": 4072,
      "மதிப்புள்ள": 4073,
      "தாசில்தார்": 4074,
      "அடையாள": 4075,
      "மலே": 4076,
      "கழ்": 4077,
      "இங்கிலா": 4078,
      "குண்ட": 4079,
      "க்கால்": 4080,
      "த்தனை": 4081,
      "ம்புல": 4082,
      "சூழலில்": 4083,
      "ல்கா": 4084,
      "தேர்வில்": 4085,
      "ஆதார": 4086,
      "ஜோதி": 4087,
      "த்ரா": 4088,
      "கலெக்ட": 4089,
      "ஒழிப்பு": 4090,
      "சரியான": 4091,
      "அதிரடியாக": 4092,
      "அதிருப": 4093,
      "உண்ணாவிரத": 4094,
      "தலையில்": 4095,
      "பணிக்கு": 4096,
      "வைகோ": 4097,
      "கம்ப்யூ": 4098,
      "அவுட்": 4099,
      "வெங்கடேசன்": 4100,
      "எழுத": 4101,
      "ப்பார்": 4102,
      "கிடைக்கவில்லை": 4103,
      "அரிய": 4104,
      "ஆராய்ச்சி": 4105,
      "்களின்": 4106,
      "கார்டு": 4107,
      "ராதாகிருஷ்ணன்": 4108,
      "பலியான": 4109,
      "வானிலை": 4110,
      "இறந்தனர்": 4111,
      "புகுந்து": 4112,
      "மாகா": 4113,
      "சந்தோ": 4114,
      "சாம்பியன்": 4115,
      "ங்க்": 4116,
      "மட்டுமின்றி": 4117,
      "திண": 4118,
      "மாளி": 4119,
      "இரட்டை": 4120,
      "வேலி": 4121,
      "பெரும்புதூர்": 4122,
      "சட்டப்பேரவை": 4123,
      "வழை": 4124,
      "மன்மோகன்": 4125,
      "கையெழு": 4126,
      "இழந்த": 4127,
      "பீகார்": 4128,
      "அதிகரித்துள்ளது": 4129,
      "நீரை": 4130,
      "விழிப்புணர்வு": 4131,
      "துர": 4132,
      "அந்தந்த": 4133,
      "இருப்பினும்": 4134,
      "படிக்க": 4135,
      "தெரிவிக்கப்பட்டுள்ளது": 4136,
      "ரவுடி": 4137,
      "சூரிய": 4138,
      "பள்ளிகள்": 4139,
      "வங்கியில்": 4140,
      "தலைய": 4141,
      "வரவழை": 4142,
      "ஆட்சியை": 4143,
      "ாலிக": 4144,
      "ம்கு": 4145,
      "ருமான": 4146,
      "பாத": 4147,
      "அறிவிக்க": 4148,
      "கட்சியில்": 4149,
      "சாலையோ": 4150,
      "பாலாஜி": 4151,
      "செயலாள": 4152,
      "ஆட்டமிழ": 4153,
      "பிப்ரவரி": 4154,
      "த்துல": 4155,
      "ரியல்": 4156,
      "மீதும்": 4157,
      "முகாம்": 4158,
      "தவ்": 4159,
      "கமிஷன்": 4160,
      "முஸ்லி": 4161,
      "ங்கர்": 4162,
      "சபரி": 4163,
      "தேடு": 4164,
      "கோண": 4165,
      "ஜிகே": 4166,
      "சூப்பர்": 4167,
      "வரவேற்றார்": 4168,
      "நை": 4169,
      "நடத்தும்": 4170,
      "பெண்களுக்கு": 4171,
      "த்தான": 4172,
      "வாபஸ்": 4173,
      "ங்களால்": 4174,
      "பீரோ": 4175,
      "சண்டை": 4176,
      "தற்காலிக": 4177,
      "தக்க": 4178,
      "தொழிலாளி": 4179,
      "கேரளாவில்": 4180,
      "்பால்": 4181,
      "குமரி": 4182,
      "குழந்தையை": 4183,
      "கனமழை": 4184,
      "மோது": 4185,
      "மியை": 4186,
      "கன்னியாகு": 4187,
      "ப்படுத்து": 4188,
      "கிராமங்களில்": 4189,
      "வல்ல": 4190,
      "நிலவு": 4191,
      "கழிவுநீர்": 4192,
      "ஆற்றில்": 4193,
      "கிருஷ்ணா": 4194,
      "மேலாளர்": 4195,
      "ஆண்கள்": 4196,
      "ளிக்க": 4197,
      "நேரடியாக": 4198,
      "கிய": 4199,
      "ஒன்றை": 4200,
      "துறையில்": 4201,
      "ஆத்திரமடைந்த": 4202,
      "செப்டம்பர்": 4203,
      "வாங்கு": 4204,
      "சோழ": 4205,
      "வையும்": 4206,
      "ந்தோ": 4207,
      "விவாதி": 4208,
      "ப்பாளர்கள்": 4209,
      "வினோ": 4210,
      "மவு": 4211,
      "ய்ட": 4212,
      "சீன": 4213,
      "றுத்த": 4214,
      "இணைப்பு": 4215,
      "நவம்பர்": 4216,
      "அமைக்கப்பட்டுள்ளது": 4217,
      "காற்று": 4218,
      "ப்பகுதியில்": 4219,
      "குளம்": 4220,
      "மாவோ": 4221,
      "ஒத்து": 4222,
      "சல": 4223,
      "ஜெர்": 4224,
      "தொ": 4225,
      "ஸ்டர்": 4226,
      "தலைமறைவாக": 4227,
      "ஆம்புல": 4228,
      "வாய்ந்த": 4229,
      "நீக்க": 4230,
      "நகைகளை": 4231,
      "விளையாட": 4232,
      "ப்பட்டிரு": 4233,
      "எம்ஜிஆர்": 4234,
      "டெல்டா": 4235,
      "ையர்": 4236,
      "இயங்கி": 4237,
      "கண்ணன்": 4238,
      "அமெரிக்காவில்": 4239,
      "னாய்வு": 4240,
      "ியாள": 4241,
      "கேட": 4242,
      "ஒப்புதல்": 4243,
      "தணி": 4244,
      "ன்மை": 4245,
      "அலை": 4246,
      "ாது": 4247,
      "அன": 4248,
      "உதய": 4249,
      "டுவிட்ட": 4250,
      "திரண்ட": 4251,
      "உரிமையாளர்": 4252,
      "ஐபிஎல்": 4253,
      "பெங்களூரு": 4254,
      "வுக்கும்": 4255,
      "ஸ்டிரை": 4256,
      "சர்மா": 4257,
      "பாமா": 4258,
      "களத்தில்": 4259,
      "தாமத": 4260,
      "நான்கு": 4261,
      "ப்பவர்": 4262,
      "ியிலிருந்து": 4263,
      "காலியாக": 4264,
      "க்குறை": 4265,
      "புலி": 4266,
      "முருக": 4267,
      "ஷெ": 4268,
      "கட்டிடம்": 4269,
      "க்களில்": 4270,
      "பதிவாக": 4271,
      "ஹே": 4272,
      "ப்ட்": 4273,
      "ச்சியாக": 4274,
      "தியே": 4275,
      "ராஜர்": 4276,
      "ட்டியை": 4277,
      "ஜம்": 4278,
      "மறி": 4279,
      "ராமநாத": 4280,
      "பூட்டி": 4281,
      "மேலாக": 4282,
      "ரிக்": 4283,
      "மருத்து": 4284,
      "துவக்க": 4285,
      "பிரசாத்": 4286,
      "உற்சாக": 4287,
      "கவி": 4288,
      "கணவன்": 4289,
      "மூலமாக": 4290,
      "அந்": 4291,
      "நடவடிக்கையும்": 4292,
      "கிருஷ்ணகிரி": 4293,
      "கிளா": 4294,
      "ஸ்டெ": 4295,
      "அடைந்து": 4296,
      "ஆஜர்படுத்தி": 4297,
      "பெண்ணை": 4298,
      "செல்கின்றனர்": 4299,
      "மகள": 4300,
      "மாகும்": 4301,
      "முடிந்தது": 4302,
      "திருவனந்தபுரம்": 4303,
      "சமைய": 4304,
      "ையெ": 4305,
      "ப்படுகின்றனர்": 4306,
      "புனி": 4307,
      "்கர்": 4308,
      "இன": 4309,
      "கிடைத்த": 4310,
      "இவர்களது": 4311,
      "பார்த்தபோது": 4312,
      "வதாகவும்": 4313,
      "அதன்பிறகு": 4314,
      "செலவில்": 4315,
      "ஸ்வரம்": 4316,
      "சிஐடி": 4317,
      "றில்": 4318,
      "உண்": 4319,
      "விரும்ப": 4320,
      "பதிலாக": 4321,
      "க்கால": 4322,
      "அடுத்தடுத்து": 4323,
      "வண்ட": 4324,
      "அதிகாரிகளிடம்": 4325,
      "விமானத்தில்": 4326,
      "ஆகஸ்ட்": 4327,
      "படப்பிடி": 4328,
      "மாவோயி": 4329,
      "பற்ற": 4330,
      "தலைநகர்": 4331,
      "ஆகும்": 4332,
      "ரஷ்யா": 4333,
      "நாட்டி": 4334,
      "மெகா": 4335,
      "தெரிவித்த": 4336,
      "பலமுறை": 4337,
      "பலனி": 4338,
      "கூறுகின்றனர்": 4339,
      "உடலில்": 4340,
      "ஏற்றுக்": 4341,
      "வென்று": 4342,
      "கேட்டபோது": 4343,
      "டமி": 4344,
      "எல்லாம்": 4345,
      "லஞ்சம்": 4346,
      "நய": 4347,
      "விடுவி": 4348,
      "அன்பழகன்": 4349,
      "கடைகளில்": 4350,
      "ராணுவம்": 4351,
      "நெருக்கடி": 4352,
      "விற்பன": 4353,
      "இதையொட்டி": 4354,
      "வழக்கறி": 4355,
      "தையும்": 4356,
      "ையாளர்கள்": 4357,
      "கதி": 4358,
      "தரி": 4359,
      "அனுமதிக்க": 4360,
      "மலர்": 4361,
      "வீச்சு": 4362,
      "தமிழகத்தின்": 4363,
      "தரை": 4364,
      "சாதாரண": 4365,
      "கார்த்திக்": 4366,
      "டந்த": 4367,
      "பேட்": 4368,
      "பாதிக்கப்பட்டது": 4369,
      "மலையாள": 4370,
      "ஆதரித்து": 4371,
      "னிக்": 4372,
      "முல்": 4373,
      "சேர்": 4374,
      "சகோதர": 4375,
      "இயக்கும்": 4376,
      "ஈடுபட்டி": 4377,
      "நடவடிக்கைகளை": 4378,
      "மக்களும்": 4379,
      "புலனாய்வு": 4380,
      "பலனின்றி": 4381,
      "கடலுக்கு": 4382,
      "ஊட்டி": 4383,
      "ந்திரம்": 4384,
      "எல்லையில்": 4385,
      "எடை": 4386,
      "நடமா": 4387,
      "கோப்ப": 4388,
      "போனது": 4389,
      "இருவருக்கும்": 4390,
      "அறிந்ததும்": 4391,
      "கொன்று": 4392,
      "பாக்": 4393,
      "ஸ்வரன்": 4394,
      "அமித்": 4395,
      "ையூர்": 4396,
      "லிவுட்": 4397,
      "சிகிச்சைக்காக": 4398,
      "மகன்கள்": 4399,
      "ஸ்து": 4400,
      "யானைகள்": 4401,
      "பெரம்பல": 4402,
      "படிப்பு": 4403,
      "த்குமார்": 4404,
      "அக்டோபர்": 4405,
      "பாஸ்கர்": 4406,
      "சைக்கி": 4407,
      "ரசன்": 4408,
      "மேலாண்மை": 4409,
      "துவங்கியது": 4410,
      "ீர்கள்": 4411,
      "கோஹ்": 4412,
      "பொங்கல்": 4413,
      "க்காடு": 4414,
      "சிஐ": 4415,
      "குறைந்து": 4416,
      "ஆத்திரம்": 4417,
      "சட்டசபையில்": 4418,
      "படுத்து": 4419,
      "ஜோடியாக": 4420,
      "உள்ளிட்டோர்": 4421,
      "ராய்": 4422,
      "த்துவம்": 4423,
      "முதிய": 4424,
      "கத்தி": 4425,
      "சம்பள": 4426,
      "ஆரம்ப": 4427,
      "இரண்டாவது": 4428,
      "ஆத்மி": 4429,
      "செயற்கை": 4430,
      "போலீசுக்கு": 4431,
      "பிஷேகம்": 4432,
      "பனி": 4433,
      "வரித்துறை": 4434,
      "விலக்கு": 4435,
      "அனுப்பினர்": 4436,
      "ஹெலி": 4437,
      "மட்டம்": 4438,
      "ேஷ்": 4439,
      "சுரங்க": 4440,
      "நடைமுறை": 4441,
      "ஆவணங்கள்": 4442,
      "பொதுச்செயலாளர்": 4443,
      "வர்களிடம்": 4444,
      "முதலி": 4445,
      "மாநாடு": 4446,
      "ற்குழு": 4447,
      "அலங்கா": 4448,
      "அவசியம்": 4449,
      "மேம்ப": 4450,
      "ராக்ட": 4451,
      "செயற்குழு": 4452,
      "ஆஸ்திரேலிய": 4453,
      "மனைவியை": 4454,
      "வருகை": 4455,
      "ஊருக்கு": 4456,
      "தோடு": 4457,
      "தொழிலாள": 4458,
      "வெடித்து": 4459,
      "பலியாக": 4460,
      "க்கத்தை": 4461,
      "பிரிய": 4462,
      "யுவ": 4463,
      "நியோ": 4464,
      "சுந்தரம்": 4465,
      "இவை": 4466,
      "தட்டி": 4467,
      "றியது": 4468,
      "கிறோம்": 4469,
      "ஏற்படுகிறது": 4470,
      "பெண்ணி": 4471,
      "செந்தில்": 4472,
      "வினியோ": 4473,
      "ஏடிஎம்": 4474,
      "திருமலை": 4475,
      "சாலையை": 4476,
      "நியூசிலாந்து": 4477,
      "நடுக்க": 4478,
      "லுள்ள": 4479,
      "பவுண்டரி": 4480,
      "மாரிய": 4481,
      "அறிவிக்கப்பட்டது": 4482,
      "நிர்ணயி": 4483,
      "அதிமுகவினர்": 4484,
      "விடுத்துள்ளனர்": 4485,
      "அஸ்": 4486,
      "ஆறுமுகம்": 4487,
      "கிராம்": 4488,
      "இருக்கலாம்": 4489,
      "நன்றாக": 4490,
      "கற்க": 4491,
      "னியை": 4492,
      "பகுதிக்கு": 4493,
      "மனுக்கள்": 4494,
      "இத்தா": 4495,
      "விரட்டி": 4496,
      "அணியை": 4497,
      "தெரிவித்தன": 4498,
      "தீன்": 4499,
      "மதிப்பெண்": 4500,
      "அரையி": 4501,
      "அமெரிக்காவின்": 4502,
      "உத்திரமேரூர்": 4503,
      "ீட்டு": 4504,
      "இன்றும்": 4505,
      "கோழி": 4506,
      "கங்கை": 4507,
      "இந்தியாக": 4508,
      "ங்களுக்கும்": 4509,
      "நண்பர்": 4510,
      "எலக்ட்": 4511,
      "திரா": 4512,
      "சாதி": 4513,
      "பிடிபட்ட": 4514,
      "சுதந்திர": 4515,
      "ப்பிங்": 4516,
      "என்பதும்": 4517,
      "சென்னையை": 4518,
      "ஈடுபட": 4519,
      "த்துக்குள்": 4520,
      "இருந்ததால்": 4521,
      "பழனிச்சாமி": 4522,
      "டவுன்": 4523,
      "துண்டி": 4524,
      "கிடைக்க": 4525,
      "இன்ஜினியரிங்": 4526,
      "கவிழ்": 4527,
      "விநாயகர்": 4528,
      "த்தொடர்ந்து": 4529,
      "கணேசன்": 4530,
      "செங்குன்றம்": 4531,
      "ஜல்லிக்கட்டு": 4532,
      "மட்ட": 4533,
      "கான": 4534,
      "மீனா": 4535,
      "தயாரித்து": 4536,
      "இளங்கோவன்": 4537,
      "வழங்கப்படுகிறது": 4538,
      "அபா": 4539,
      "ப்பேன்": 4540,
      "ட்டிருந்த": 4541,
      "நிலையங்களில்": 4542,
      "சண்முகம்": 4543,
      "நூற்று": 4544,
      "நலம்": 4545,
      "நிறுவ": 4546,
      "யான": 4547,
      "தேனி": 4548,
      "செயலாளராக": 4549,
      "பெய்தது": 4550,
      "மம்": 4551,
      "தெரிந்து": 4552,
      "ட்டாராம்": 4553,
      "அறிவிக்கப்பட்டுள்ளது": 4554,
      "ஆகி": 4555,
      "னாளி": 4556,
      "ச்சூ": 4557,
      "அகில": 4558,
      "மூழ்கி": 4559,
      "காய்க": 4560,
      "பொதுப்பணி": 4561,
      "கமிட்டி": 4562,
      "தார்": 4563,
      "விநியோ": 4564,
      "நிற்க": 4565,
      "சேகரி": 4566,
      "இல்லா": 4567,
      "லண்டன்": 4568,
      "படங்களை": 4569,
      "முடிவுக்கு": 4570,
      "தில்லை": 4571,
      "கிடந்தது": 4572,
      "கொடூ": 4573,
      "முருகே": 4574,
      "மேயர்": 4575,
      "ம்பட்டி": 4576,
      "அமைப்பாளர்": 4577,
      "இன்னி": 4578,
      "நிறைய": 4579,
      "பகல்": 4580,
      "உத்தரவை": 4581,
      "விதமாக": 4582,
      "ராஜேஷ்": 4583,
      "பேசுகையில்": 4584,
      "தகு": 4585,
      "ருதி": 4586,
      "பல்லா": 4587,
      "நடவடிக்கைகள்": 4588,
      "போட்டியிடும்": 4589,
      "ட்டுகள்": 4590,
      "அன்ற": 4591,
      "மானிய": 4592,
      "கவனம்": 4593,
      "ஹரி": 4594,
      "ளவு": 4595,
      "சய": 4596,
      "சூர்யா": 4597,
      "நிலு": 4598,
      "கோரிக்கையை": 4599,
      "எடியூ": 4600,
      "கருத": 4601,
      "மதிப்பி": 4602,
      "வெயில்": 4603,
      "ளில்": 4604,
      "நொறு": 4605,
      "நிரம்": 4606,
      "சிவசேனா": 4607,
      "எடியூரப்பா": 4608,
      "சிபிசிஐடி": 4609,
      "பாத்தில்": 4610,
      "மூடி": 4611,
      "தொழில": 4612,
      "சாதன": 4613,
      "அதிகரிக்க": 4614,
      "கல்யா": 4615,
      "வீராங்கனை": 4616,
      "ரான்": 4617,
      "தயாரிப்பு": 4618,
      "உண்ணாவிரதம்": 4619,
      "டுப்பு": 4620,
      "செல்போனில்": 4621,
      "எதிர்கொ": 4622,
      "காய்கறி": 4623,
      "லாரிகள்": 4624,
      "இங்குள்ள": 4625,
      "திகா": 4626,
      "த்துக்": 4627,
      "வெட்ட": 4628,
      "விசாரணையை": 4629,
      "துறைமுக": 4630,
      "விதிக்க": 4631,
      "த்தியால்": 4632,
      "பாலு": 4633,
      "வெளியு": 4634,
      "னர்த": 4635,
      "மின்வாரிய": 4636,
      "உயிரிழந்தனர்": 4637,
      "கோட்டை": 4638,
      "ரூபாய": 4639,
      "தாரம்": 4640,
      "கொண்டிருந்தது": 4641,
      "வசதிகள்": 4642,
      "துப்பாக்க": 4643,
      "துடி": 4644,
      "வாரத்தில்": 4645,
      "அரக்கோ": 4646,
      "அப்துல்": 4647,
      "டிஜிபி": 4648,
      "புகார்கள்": 4649,
      "போக": 4650,
      "எதிரே": 4651,
      "விலும்": 4652,
      "எவ்வித": 4653,
      "உருவாக்க": 4654,
      "நாகர்கோவில்": 4655,
      "பொறுத்த": 4656,
      "அபராதம்": 4657,
      "்சே": 4658,
      "காப்ட": 4659,
      "பாஸ்": 4660,
      "அணிந்து": 4661,
      "ஆப்ரிக்கா": 4662,
      "ங்குளம்": 4663,
      "ையற்ற": 4664,
      "வந்திரு": 4665,
      "ஆபாச": 4666,
      "குற்றம்க": 4667,
      "கண்டன": 4668,
      "சுய": 4669,
      "சச்சின்": 4670,
      "பக்தர்களுக்கு": 4671,
      "கொ": 4672,
      "மின்க": 4673,
      "வாய்ப்புள்ளது": 4674,
      "வாட்": 4675,
      "தாலும்": 4676,
      "ரோகி": 4677,
      "அறிவித்தது": 4678,
      "ஸ்ரீபெரும்புதூர்": 4679,
      "கோவிந்த": 4680,
      "்களுடன்": 4681,
      "விருப்ப": 4682,
      "நுழைவு": 4683,
      "குத்தி": 4684,
      "திறப்பு": 4685,
      "ஹோ": 4686,
      "அரசா": 4687,
      "வாகனம்": 4688,
      "மாதங்களாக": 4689,
      "ஆட்சிக்கு": 4690,
      "பாலிவுட்": 4691,
      "பவர்": 4692,
      "செம்மர": 4693,
      "ஐஏ": 4694,
      "அரசி": 4695,
      "ரத்": 4696,
      "மால": 4697,
      "இதன்படி": 4698,
      "கொள்ளையடித்து": 4699,
      "ரிலீஸ்": 4700,
      "சுங்க": 4701,
      "ஸ்பு": 4702,
      "ஏழுமலையா": 4703,
      "சசி": 4704,
      "ஸ்டிக்": 4705,
      "அளிக்கப்பட்டது": 4706,
      "அமலா": 4707,
      "சஞ்ச": 4708,
      "அளிக்கப்பட்டு": 4709,
      "தப்பியோ": 4710,
      "ஹெலிகாப்ட": 4711,
      "உண்டு": 4712,
      "ஞ்ச்": 4713,
      "மிகப்பெ": 4714,
      "கொள்கை": 4715,
      "ாராம்": 4716,
      "கோடை": 4717,
      "சாகு": 4718,
      "்பி": 4719,
      "நியா": 4720,
      "அனைவருக்கும்": 4721,
      "நடந்துள்ளது": 4722,
      "வெளியுறவு": 4723,
      "ஐஜி": 4724,
      "தெளி": 4725,
      "வைத்துள்ளனர்": 4726,
      "பங்கேற்றனர்": 4727,
      "அபாயம்": 4728,
      "யன்": 4729,
      "ரியின்": 4730,
      "போடு": 4731,
      "அட்": 4732,
      "வக்கீல்கள்": 4733,
      "ராமேஸ்வரம்": 4734,
      "க்கப்பட்டுள்ளார்": 4735,
      "எழுப்ப": 4736,
      "கிடந்தார்": 4737,
      "கெஜ்ரிவால்": 4738,
      "அடியாக": 4739,
      "தம்பதி": 4740,
      "மகிழ்ச்ச": 4741,
      "க்கவும்": 4742,
      "செட்": 4743,
      "பாண்டி": 4744,
      "நடப்பு": 4745,
      "பெற்றுள்ளது": 4746,
      "திரிணா": 4747,
      "உத்தரவிட்டுள்ளார்": 4748,
      "வர்த்தக": 4749,
      "இடைத்தேர்தல்": 4750,
      "மாடு": 4751,
      "மயங்கி": 4752,
      "ஐநா": 4753,
      "செந்தி": 4754,
      "மெட்ரோ": 4755,
      "த்தீ": 4756,
      "களம்": 4757,
      "அளிக்கும்": 4758,
      "ஆரோ": 4759,
      "நீக்கம்": 4760,
      "வலியுறுத்த": 4761,
      "ஜெகன்": 4762,
      "கதவு": 4763,
      "்கட்ட": 4764,
      "தனு": 4765,
      "ஓபிஎஸ்": 4766,
      "வாசல்": 4767,
      "திராவிட": 4768,
      "கரும்பு": 4769,
      "அமைச்சரவை": 4770,
      "அலுவலர்கள்": 4771,
      "உரிமையாளர்கள்": 4772,
      "இளைஞரணி": 4773,
      "லாமா": 4774,
      "இதனி": 4775,
      "வரிசை": 4776,
      "பத்திர": 4777,
      "ஹை": 4778,
      "திலும்": 4779,
      "இறுதியில்": 4780,
      "புனே": 4781,
      "தெரியும்": 4782,
      "குறைவாக": 4783,
      "தீப": 4784,
      "சர்க்கரை": 4785,
      "ட்டையை": 4786,
      "ையன்": 4787,
      "லிங்": 4788,
      "பெரிதும்": 4789,
      "அரவி": 4790,
      "எச்": 4791,
      "இடங்களை": 4792,
      "இந்தியாவுக்கு": 4793,
      "இப்போ": 4794,
      "அறிவித்து": 4795,
      "தூங்கி": 4796,
      "ன்தா": 4797,
      "ல்குமார்": 4798,
      "கிளி": 4799,
      "மேலி": 4800,
      "தொடங்குகிறது": 4801,
      "ஜிஎஸ்டி": 4802,
      "மண்டபத்தில்": 4803,
      "நலத்திட்ட": 4804,
      "சித்து": 4805,
      "கோடியே": 4806,
      "கால்நடை": 4807,
      "ஓபன்னீர்செல்வம்": 4808,
      "ஆர்கேநகர்": 4809,
      "மாறன்": 4810,
      "மிகுந்த": 4811,
      "விழுந்தது": 4812,
      "பதற்ற": 4813,
      "அத்துடன்": 4814,
      "ஏமாற்ற": 4815,
      "விவசாயிகளுக்கு": 4816,
      "விஸ்வ": 4817,
      "மிஸ்": 4818,
      "தண்டன": 4819,
      "சமீப": 4820,
      "லுடன்": 4821,
      "படித்த": 4822,
      "வித்தியாசத்தில்": 4823,
      "ணாக": 4824,
      "வெறும்": 4825,
      "போலீஸ்கா": 4826,
      "ஆடிய": 4827,
      "தண்டவாள": 4828,
      "விடை": 4829,
      "சம்பா": 4830,
      "எடுக்கும்": 4831,
      "மிகப்பெரிய": 4832,
      "அவர": 4833,
      "வன்முறை": 4834,
      "ஆலை": 4835,
      "ஒத்துழை": 4836,
      "லார்": 4837,
      "நாட்டை": 4838,
      "செயல்பட்ட": 4839,
      "மாம": 4840,
      "அதிர்ச்சியடைந்த": 4841,
      "ஸ்வரர்": 4842,
      "நிரந்தர": 4843,
      "அண்ணன்": 4844,
      "விரைந்தனர்": 4845,
      "மாலையில்": 4846,
      "கோள்": 4847,
      "முடிவுகள்": 4848,
      "வாலாஜா": 4849,
      "யாக": 4850,
      "அமைக்கும்": 4851,
      "குழந்தைகளை": 4852,
      "திரிணாமுல்": 4853,
      "ப்படாமல்": 4854,
      "பேரின்": 4855,
      "திட்டங்கள்": 4856,
      "ஆந்திராவில்": 4857,
      "உத": 4858,
      "சாவடி": 4859,
      "மாநிலங்கள": 4860,
      "தீயை": 4861,
      "ம்மாள்": 4862,
      "திட்டங்களை": 4863,
      "பக்கத்தில்": 4864,
      "விவரங்களை": 4865,
      "பிரணா": 4866,
      "ஞ்சு": 4867,
      "தரன்": 4868,
      "செல்வி": 4869,
      "சுந்தர்": 4870,
      "சுட்டுக்": 4871,
      "கன்னியாகுமரி": 4872,
      "ஸ்வர்": 4873,
      "ஸ்கோ": 4874,
      "மணிகண்டன்": 4875,
      "வந்தன": 4876,
      "பரே": 4877,
      "அஜீ": 4878,
      "ப்பாள": 4879,
      "புரத்தை": 4880,
      "ஊற்றி": 4881,
      "ஒட்ட": 4882,
      "என்பவரை": 4883,
      "ஊராட்சியில்": 4884,
      "செய்யவில்லை": 4885,
      "மடைந்தனர்": 4886,
      "மழைநீர்": 4887,
      "தளத்தில்": 4888,
      "தரும்": 4889,
      "கட்டாய": 4890,
      "சுற்றுப்பயணம்": 4891,
      "ஸ்கி": 4892,
      "விடுவிக்க": 4893,
      "தொழிலாளர்": 4894,
      "க்கெட்": 4895,
      "மாணவன்": 4896,
      "ஓடிய": 4897,
      "செய்யப்படு": 4898,
      "நாளான": 4899,
      "திரண்டு": 4900,
      "கந்த": 4901,
      "சலு": 4902,
      "அரியானா": 4903,
      "ஆஸி": 4904,
      "அணையில்": 4905,
      "முடிவை": 4906,
      "சமாக": 4907,
      "ம்ஸ்": 4908,
      "்களையும்": 4909,
      "ப்பகுதி": 4910,
      "விறு": 4911,
      "நீலகிரி": 4912,
      "ஊதிய": 4913,
      "விட்டன": 4914,
      "பிற்பகல்": 4915,
      "சரண": 4916,
      "ங்களா": 4917,
      "பெரம்பலூர்": 4918,
      "காந்த": 4919,
      "கொண்டுவர": 4920,
      "ரகு": 4921,
      "இப்பகுதி": 4922,
      "தூரம்": 4923,
      "வித்யா": 4924,
      "மரியாதை": 4925,
      "ட்கள்": 4926,
      "மரணம்": 4927,
      "தொழிற்சாலை": 4928,
      "வேகத்தில்": 4929,
      "முற்றிலும்": 4930,
      "பெயரை": 4931,
      "சர்ச்சை": 4932,
      "வனை": 4933,
      "தெரிவிக்க": 4934,
      "ஆர்எஸ்": 4935,
      "ஒட்டு": 4936,
      "புனித": 4937,
      "மாதிரி": 4938,
      "கேட்": 4939,
      "ப்பால்": 4940,
      "படத்தின்": 4941,
      "சிறுத்தைகள்": 4942,
      "லாது": 4943,
      "இரவில்": 4944,
      "இதனிடையே": 4945,
      "ச்செ": 4946,
      "விதித்து": 4947,
      "முடிவடை": 4948,
      "நெடுஞ்சாலையில்": 4949,
      "ஏரியில்": 4950,
      "ப்போரூர்": 4951,
      "வெளியானது": 4952,
      "ப்பளி": 4953,
      "போலீசாரும்": 4954,
      "வெள்ளை": 4955,
      "பொதுக்குழு": 4956,
      "சுப்பிரமணியன்": 4957,
      "அக்கம்": 4958,
      "செய்கிறார்": 4959,
      "கொள்ளும்": 4960,
      "சனி": 4961,
      "ள்ளேன்": 4962,
      "கடந்து": 4963,
      "ஆனந்த்": 4964,
      "ந்தன": 4965,
      "துணைத்": 4966,
      "ஜர்": 4967,
      "வைக்கப்பட்டுள்ளது": 4968,
      "ஒருவரை": 4969,
      "வாக்குச்சாவடி": 4970,
      "ஆசாமிகள்": 4971,
      "எழுந்து": 4972,
      "எரிந்து": 4973,
      "வலம்": 4974,
      "எப்போதும்": 4975,
      "ஊதியம்": 4976,
      "ரமாக": 4977,
      "டியின்": 4978,
      "கருவி": 4979,
      "தவறி": 4980,
      "பயன்படுத்து": 4981,
      "பதவியில்": 4982,
      "மகிழ்ச்சி": 4983,
      "ஆர்வல": 4984,
      "பாகிஸ்தானில்": 4985,
      "சந்திப்பு": 4986,
      "வெயி": 4987,
      "மந்த": 4988,
      "செல்வன்": 4989,
      "அவ்வ": 4990,
      "ராமநாதபுரம்": 4991,
      "கோஹ்லி": 4992,
      "முக்கியத்துவம்": 4993,
      "இலை": 4994,
      "ரிமை": 4995,
      "மாதவரம்": 4996,
      "பெண்களை": 4997,
      "உயிரிழந்தார்": 4998,
      "நிறுத்தம்": 4999
    },
    "merges": [
      [
        "்",
        "த"
      ],
      [
        "்",
        "க"
      ],
      [
        "ல",
        "்"
      ],
      [
        "ம",
        "்"
      ],
      [
        "ர",
        "்"
      ],
      [
        "்",
        "ட"
      ],
      [
        "க",
        "்க"
      ],
      [
        "ன",
        "்"
      ],
      [
        "த",
        "்த"
      ],
      [
        "்",
        "ப"
      ],
      [
        "ி",
        "ல்"
      ],
      [
        "ட",
        "்ட"
      ],
      [
        "ள",
        "்"
      ],
      [
        "த",
        "ு"
      ],
      [
        "ி",
        "ய"
      ],
      [
        "ந",
        "்த"
      ],
      [
        "ர",
        "ு"
      ],
      [
        "ப",
        "்ப"
      ],
      [
        "ு",
        "ம்"
      ],
      [
        "த",
        "ி"
      ],
      [
        "வ",
        "ி"
      ],
      [
        "ை",
        "ய"
      ],
      [
        "ங",
        "்க"
      ],
      [
        "ம",
        "ா"
      ],
      [
        "க்க",
        "ு"
      ],
      [
        "ள்",
        "ள"
      ],
      [
        "ற",
        "ு"
      ],
      [
        "ச",
        "ெ"
      ],
      [
        "த்த",
        "ு"
      ],
      [
        "ட",
        "ு"
      ],
      [
        "்",
        "ச"
      ],
      [
        "ா",
        "ர்"
      ],
      [
        "ர",
        "ி"
      ],
      [
        "ம",
        "ு"
      ],
      [
        "ட",
        "ி"
      ],
      [
        "ா",
        "க"
      ],
      [
        "ற",
        "்"
      ],
      [
        "க",
        "ு"
      ],
      [
        "க",
        "ா"
      ],
      [
        "ல",
        "ை"
      ],
      [
        "ண",
        "்ட"
      ],
      [
        "ன",
        "ர்"
      ],
      [
        "ர",
        "்க"
      ],
      [
        "க",
        "ி"
      ],
      [
        "ச",
        "ி"
      ],
      [
        "ப",
        "ோ"
      ],
      [
        "ர",
        "ா"
      ],
      [
        "ப",
        "ி"
      ],
      [
        "ந",
        "ி"
      ],
      [
        "ற்",
        "ற"
      ],
      [
        "ட்ட",
        "ு"
      ],
      [
        "ப",
        "ா"
      ],
      [
        "ன்",
        "ற"
      ],
      [
        "வ",
        "ா"
      ],
      [
        "ந்த",
        "ு"
      ],
      [
        "வ",
        "ே"
      ],
      [
        "வ",
        "ு"
      ],
      [
        "செ",
        "ய"
      ],
      [
        "த",
        "ா"
      ],
      [
        "ம",
        "ி"
      ],
      [
        "க",
        "ள"
      ],
      [
        "ச",
        "ா"
      ],
      [
        "ைய",
        "ில்"
      ],
      [
        "ப",
        "ு"
      ],
      [
        "ன",
        "ை"
      ],
      [
        "த்த",
        "ி"
      ],
      [
        "ப",
        "ெ"
      ],
      [
        "த",
        "ே"
      ],
      [
        "த்த",
        "ில்"
      ],
      [
        "ற",
        "ி"
      ],
      [
        "ந",
        "ட"
      ],
      [
        "க",
        "ொ"
      ],
      [
        "ச",
        "ு"
      ],
      [
        "ல",
        "ா"
      ],
      [
        "க",
        "ள்"
      ],
      [
        "ர்க",
        "ள்"
      ],
      [
        "ஸ",
        "்"
      ],
      [
        "வ",
        "ரு"
      ],
      [
        "ந",
        "ா"
      ],
      [
        "வ",
        "ர்"
      ],
      [
        "ச",
        "்ச"
      ],
      [
        "வ",
        "ர"
      ],
      [
        "இ",
        "ரு"
      ],
      [
        "உ",
        "ள்ள"
      ],
      [
        "ப்ப",
        "ு"
      ],
      [
        "ண",
        "ி"
      ],
      [
        "ற",
        "்க"
      ],
      [
        "க",
        "ட"
      ],
      [
        "த",
        "ொ"
      ],
      [
        "இ",
        "த"
      ],
      [
        "ன்",
        "று"
      ],
      [
        "ல",
        "ி"
      ],
      [
        "க",
        "ூ"
      ],
      [
        "ன",
        "ா"
      ],
      [
        "ப",
        "ே"
      ],
      [
        "இ",
        "ந்த"
      ],
      [
        "ள",
        "ி"
      ],
      [
        "வ",
        "ை"
      ],
      [
        "க",
        "ோ"
      ],
      [
        "ப்ப",
        "ட்ட"
      ],
      [
        "நி",
        "ல"
      ],
      [
        "ிய",
        "ில்"
      ],
      [
        "ிய",
        "ா"
      ],
      [
        "ற",
        "்ப"
      ],
      [
        "வ",
        "ெ"
      ],
      [
        "ம",
        "ை"
      ],
      [
        "ம",
        "ே"
      ],
      [
        "ங்க",
        "ள"
      ],
      [
        "ட",
        "ை"
      ],
      [
        "ு",
        "க்கு"
      ],
      [
        "வ",
        "ில்"
      ],
      [
        "ன",
        "ி"
      ],
      [
        "அ",
        "தி"
      ],
      [
        "ர",
        "்த"
      ],
      [
        "ண",
        "்"
      ],
      [
        "க்க",
        "ி"
      ],
      [
        "கி",
        "ற"
      ],
      [
        "ண்ட",
        "ு"
      ],
      [
        "ட்ட",
        "ி"
      ],
      [
        "வ",
        "ீ"
      ],
      [
        "ற்",
        "று"
      ],
      [
        "த",
        "ெ"
      ],
      [
        "ச",
        "ே"
      ],
      [
        "ற",
        "ை"
      ],
      [
        "்ச",
        "ி"
      ],
      [
        "செய",
        "்த"
      ],
      [
        "க",
        "ே"
      ],
      [
        "வ",
        "ழ"
      ],
      [
        "ர",
        "ை"
      ],
      [
        "ம",
        "ீ"
      ],
      [
        "க",
        "்"
      ],
      [
        "ய",
        "ி"
      ],
      [
        "ர",
        "ம்"
      ],
      [
        "மி",
        "ழ"
      ],
      [
        "ல",
        "ீ"
      ],
      [
        "க்க",
        "ும்"
      ],
      [
        "தி",
        "ரு"
      ],
      [
        "அ",
        "ர"
      ],
      [
        "த",
        "மிழ"
      ],
      [
        "ந",
        "ே"
      ],
      [
        "ூ",
        "ர்"
      ],
      [
        "ர்க",
        "ள"
      ],
      [
        "ம்",
        "ப"
      ],
      [
        "ழ",
        "ு"
      ],
      [
        "தொ",
        "ட"
      ],
      [
        "போ",
        "லீ"
      ],
      [
        "த",
        "ல்"
      ],
      [
        "த",
        "லை"
      ],
      [
        "்",
        "ய"
      ],
      [
        "ட",
        "்"
      ],
      [
        "ள்ள",
        "து"
      ],
      [
        "ங்க",
        "ி"
      ],
      [
        "ிய",
        "ி"
      ],
      [
        "எ",
        "ன"
      ],
      [
        "ல்",
        "ல"
      ],
      [
        "ப்ப",
        "ட்டு"
      ],
      [
        "க",
        "ை"
      ],
      [
        "ப",
        "ொ"
      ],
      [
        "த்த",
        "ை"
      ],
      [
        "ப்ப",
        "ி"
      ],
      [
        "மா",
        "க"
      ],
      [
        "ச",
        "ார்"
      ],
      [
        "ந",
        "ீ"
      ],
      [
        "பி",
        "ர"
      ],
      [
        "தமிழ",
        "க"
      ],
      [
        "ம",
        "ற்ற"
      ],
      [
        "ட",
        "ம்"
      ],
      [
        "ர",
        "ிய"
      ],
      [
        "ண்ட",
        "ும்"
      ],
      [
        "ல",
        "ும்"
      ],
      [
        "த",
        "்"
      ],
      [
        "கிற",
        "து"
      ],
      [
        "வ",
        "ந்த"
      ],
      [
        "வ",
        "து"
      ],
      [
        "டு",
        "த்த"
      ],
      [
        "னா",
        "ல்"
      ],
      [
        "ன்",
        "ன"
      ],
      [
        "ட",
        "ன்"
      ],
      [
        "ப",
        "்"
      ],
      [
        "ந்த",
        "ி"
      ],
      [
        "ய",
        "்"
      ],
      [
        "ண",
        "ை"
      ],
      [
        "செய",
        "்ய"
      ],
      [
        "வ",
        "ட்ட"
      ],
      [
        "மு",
        "க"
      ],
      [
        "ங்க",
        "ள்"
      ],
      [
        "ன்ற",
        "னர்"
      ],
      [
        "மற்ற",
        "ும்"
      ],
      [
        "த",
        "ாக"
      ],
      [
        "த",
        "ீ"
      ],
      [
        "ா",
        "ன"
      ],
      [
        "ட",
        "ிய"
      ],
      [
        "ஒ",
        "ரு"
      ],
      [
        "ற்ற",
        "ி"
      ],
      [
        "மு",
        "தல்"
      ],
      [
        "இ",
        "து"
      ],
      [
        "மா",
        "ன"
      ],
      [
        "ன்",
        "ப"
      ],
      [
        "ஏ",
        "ற்ப"
      ],
      [
        "ங்க",
        "ு"
      ],
      [
        "அர",
        "சு"
      ],
      [
        "ன",
        "ு"
      ],
      [
        "கள",
        "ை"
      ],
      [
        "அ",
        "மை"
      ],
      [
        "ட",
        "ும்"
      ],
      [
        "மா",
        "வட்ட"
      ],
      [
        "ர்த",
        "்த"
      ],
      [
        "ற்க",
        "ு"
      ],
      [
        "அ",
        "வ"
      ],
      [
        "கு",
        "றி"
      ],
      [
        "வே",
        "ண்டும்"
      ],
      [
        "டு",
        "த்து"
      ],
      [
        "த",
        "ிய"
      ],
      [
        "ண்",
        "ண"
      ],
      [
        "ம",
        "ூ"
      ],
      [
        "எ",
        "ன்று"
      ],
      [
        "தொட",
        "ர்"
      ],
      [
        "போலீ",
        "சார்"
      ],
      [
        "ம",
        "க்க"
      ],
      [
        "ர",
        "ூ"
      ],
      [
        "ட",
        "்ச"
      ],
      [
        "டி",
        "க்க"
      ],
      [
        "ப",
        "ல"
      ],
      [
        "ள",
        "ை"
      ],
      [
        "எ",
        "ன்ற"
      ],
      [
        "ன்",
        "னை"
      ],
      [
        "அ",
        "த"
      ],
      [
        "ர்",
        "ந்த"
      ],
      [
        "தெ",
        "ரி"
      ],
      [
        "ப்ப",
        "ா"
      ],
      [
        "வ",
        "ல"
      ],
      [
        "ந்த",
        "து"
      ],
      [
        "ரா",
        "ஜ"
      ],
      [
        "ர",
        "ில்"
      ],
      [
        "வி",
        "சா"
      ],
      [
        "ிய",
        "ு"
      ],
      [
        "ள",
        "ர்"
      ],
      [
        "ந",
        "க"
      ],
      [
        "ா",
        "ல்"
      ],
      [
        "ோ",
        "து"
      ],
      [
        "ஸ",
        "்ட"
      ],
      [
        "ப",
        "ர"
      ],
      [
        "வ",
        "ாக"
      ],
      [
        "க்கி",
        "ற"
      ],
      [
        "ஆ",
        "க"
      ],
      [
        "செய்த",
        "ு"
      ],
      [
        "ப",
        "கு"
      ],
      [
        "நே",
        "ற்று"
      ],
      [
        "கட",
        "ந்த"
      ],
      [
        "சே",
        "ர்ந்த"
      ],
      [
        "ல",
        "ு"
      ],
      [
        "வர",
        "ை"
      ],
      [
        "கள",
        "ில்"
      ],
      [
        "செ",
        "ன்னை"
      ],
      [
        "இ",
        "ட"
      ],
      [
        "்க",
        "ள்"
      ],
      [
        "த்த",
        "ிய"
      ],
      [
        "அ",
        "றி"
      ],
      [
        "ய",
        "ா"
      ],
      [
        "ி",
        "ரு"
      ],
      [
        "ல",
        "ில்"
      ],
      [
        "ைய",
        "ும்"
      ],
      [
        "ரி",
        "க்க"
      ],
      [
        "ப",
        "ட"
      ],
      [
        "தா",
        "ல்"
      ],
      [
        "வ",
        "ும்"
      ],
      [
        "ச",
        "்"
      ],
      [
        "ப்பட்ட",
        "து"
      ],
      [
        "ைய",
        "ை"
      ],
      [
        "நில",
        "ையில்"
      ],
      [
        "ைய",
        "ா"
      ],
      [
        "ம",
        "ோ"
      ],
      [
        "ர",
        "ோ"
      ],
      [
        "வ",
        "ர்கள்"
      ],
      [
        "ன",
        "ார்"
      ],
      [
        "ைய",
        "ி"
      ],
      [
        "ல",
        "ம்"
      ],
      [
        "ரு",
        "ம்"
      ],
      [
        "மு",
        "ன்"
      ],
      [
        "தெரி",
        "வி"
      ],
      [
        "ப்ப",
        "டு"
      ],
      [
        "ங்கள",
        "ில்"
      ],
      [
        "ப",
        "தி"
      ],
      [
        "இரு",
        "ந்து"
      ],
      [
        "அதி",
        "கா"
      ],
      [
        "ஆக",
        "ிய"
      ],
      [
        "வரு",
        "ம்"
      ],
      [
        "த",
        "ன"
      ],
      [
        "ஞ",
        "்ச"
      ],
      [
        "ழ",
        "ி"
      ],
      [
        "ஷ",
        "்"
      ],
      [
        "கொ",
        "ண்ட"
      ],
      [
        "வி",
        "ட்ட"
      ],
      [
        "ப",
        "ண"
      ],
      [
        "இ",
        "ன்று"
      ],
      [
        "ட",
        "்சி"
      ],
      [
        "ம",
        "ணி"
      ],
      [
        "உ",
        "ட"
      ],
      [
        "குறி",
        "த்து"
      ],
      [
        "த்து",
        "க்கு"
      ],
      [
        "ள்ள",
        "ார்"
      ],
      [
        "எ",
        "தி"
      ],
      [
        "போ",
        "து"
      ],
      [
        "அ",
        "ரு"
      ],
      [
        "ட்ட",
        "ம்"
      ],
      [
        "அ",
        "ப்ப"
      ],
      [
        "ர",
        "ண"
      ],
      [
        "ம",
        "ல்"
      ],
      [
        "தே",
        "தி"
      ],
      [
        "ம",
        "ரு"
      ],
      [
        "ஜ",
        "ெ"
      ],
      [
        "ட்ட",
        "ை"
      ],
      [
        "மா",
        "நில"
      ],
      [
        "த",
        "ியில்"
      ],
      [
        "கி",
        "ன்றனர்"
      ],
      [
        "க",
        "ம்"
      ],
      [
        "த",
        "ம்"
      ],
      [
        "ிய",
        "ை"
      ],
      [
        "வில்",
        "லை"
      ],
      [
        "மு",
        "டி"
      ],
      [
        "கூ",
        "ற"
      ],
      [
        "தே",
        "ர்த"
      ],
      [
        "ட",
        "ா"
      ],
      [
        "ரா",
        "ம"
      ],
      [
        "ள்ள",
        "னர்"
      ],
      [
        "அ",
        "வர்"
      ],
      [
        "வ",
        "்"
      ],
      [
        "இரு",
        "ந்த"
      ],
      [
        "ழ",
        "ை"
      ],
      [
        "த",
        "ை"
      ],
      [
        "ட",
        "ெ"
      ],
      [
        "டு",
        "க்க"
      ],
      [
        "இத",
        "னால்"
      ],
      [
        "ட்ட",
        "ில்"
      ],
      [
        "ச",
        "ோ"
      ],
      [
        "ர",
        "ாக"
      ],
      [
        "மா",
        "ர்"
      ],
      [
        "எ",
        "ன்ப"
      ],
      [
        "ய",
        "ில்"
      ],
      [
        "ர",
        "ே"
      ],
      [
        "உள்ள",
        "து"
      ],
      [
        "ள்ள",
        "ி"
      ],
      [
        "ப",
        "ய"
      ],
      [
        "ா",
        "ன்"
      ],
      [
        "ச",
        "ிய"
      ],
      [
        "ர",
        "வு"
      ],
      [
        "மா",
        "ண"
      ],
      [
        "வெ",
        "ள"
      ],
      [
        "ஜ",
        "ி"
      ],
      [
        "த்து",
        "வ"
      ],
      [
        "ம",
        "ண"
      ],
      [
        "மக்க",
        "ள்"
      ],
      [
        "க்க",
        "ம்"
      ],
      [
        "அ",
        "னு"
      ],
      [
        "இ",
        "ய"
      ],
      [
        "த்த",
        "னர்"
      ],
      [
        "ோ",
        "ர்"
      ],
      [
        "வ",
        "ன"
      ],
      [
        "வி",
        "ர"
      ],
      [
        "ஆ",
        "ண்டு"
      ],
      [
        "நட",
        "ை"
      ],
      [
        "ச",
        "ம்ப"
      ],
      [
        "த",
        "க"
      ],
      [
        "க்க",
        "ா"
      ],
      [
        "நி",
        "று"
      ],
      [
        "பொ",
        "து"
      ],
      [
        "அ",
        "ந்த"
      ],
      [
        "க",
        "ல"
      ],
      [
        "்க",
        "ள"
      ],
      [
        "எ",
        "ம்"
      ],
      [
        "ம",
        "ெ"
      ],
      [
        "ம",
        "த்திய"
      ],
      [
        "ந",
        "டி"
      ],
      [
        "ம",
        "ன்ற"
      ],
      [
        "ப",
        "ாக"
      ],
      [
        "பி",
        "ன்"
      ],
      [
        "அதிகா",
        "ரி"
      ],
      [
        "ிய",
        "ாக"
      ],
      [
        "தமிழக",
        "ம்"
      ],
      [
        "ஸ",
        "்ப"
      ],
      [
        "ர்க",
        "்க"
      ],
      [
        "ச்ச",
        "ி"
      ],
      [
        "ல",
        "ட்ச"
      ],
      [
        "ப",
        "ட்ட"
      ],
      [
        "சி",
        "ல"
      ],
      [
        "க்க",
        "ப்பட்டு"
      ],
      [
        "ப்ப",
        "டும்"
      ],
      [
        "வ",
        "ர்கள"
      ],
      [
        "ந",
        "்"
      ],
      [
        "அ",
        "ளி"
      ],
      [
        "மரு",
        "த்துவ"
      ],
      [
        "த",
        "ர"
      ],
      [
        "பே",
        "ர்"
      ],
      [
        "நீ",
        "தி"
      ],
      [
        "பெ",
        "ற்ற"
      ],
      [
        "வ",
        "ல்"
      ],
      [
        "தலை",
        "வர்"
      ],
      [
        "ரு",
        "க்கு"
      ],
      [
        "இத",
        "ில்"
      ],
      [
        "ம",
        "னை"
      ],
      [
        "வர",
        "து"
      ],
      [
        "ம",
        "தி"
      ],
      [
        "வழ",
        "க்கு"
      ],
      [
        "கு",
        "ற்ற"
      ],
      [
        "கொ",
        "ண்டு"
      ],
      [
        "ப",
        "ூ"
      ],
      [
        "மீ",
        "து"
      ],
      [
        "அமை",
        "ச்ச"
      ],
      [
        "ச",
        "ீ"
      ],
      [
        "க",
        "ரு"
      ],
      [
        "க",
        "ார்"
      ],
      [
        "ஸ",
        "்த"
      ],
      [
        "சி",
        "ற"
      ],
      [
        "இ",
        "ந்"
      ],
      [
        "க",
        "ண"
      ],
      [
        "ர",
        "ீ"
      ],
      [
        "கள",
        "ுக்கு"
      ],
      [
        "ிய",
        "து"
      ],
      [
        "வரு",
        "கின்றனர்"
      ],
      [
        "ம",
        "ும்"
      ],
      [
        "க",
        "ர்"
      ],
      [
        "வழ",
        "ங்க"
      ],
      [
        "ர",
        "ன்"
      ],
      [
        "ன",
        "ம்"
      ],
      [
        "நட",
        "த்தி"
      ],
      [
        "ப்ப",
        "ட"
      ],
      [
        "வ",
        "ந்து"
      ],
      [
        "கள",
        "ி"
      ],
      [
        "ங",
        "்"
      ],
      [
        "இந்த",
        "ியா"
      ],
      [
        "ி",
        "ட்ட"
      ],
      [
        "ம",
        "ர்"
      ],
      [
        "ப",
        "ல்"
      ],
      [
        "த்த",
        "ார்"
      ],
      [
        "வரு",
        "கிறது"
      ],
      [
        "வி",
        "ள"
      ],
      [
        "ர",
        "ணை"
      ],
      [
        "கு",
        "தி"
      ],
      [
        "ியி",
        "ன்"
      ],
      [
        "ச",
        "ொ"
      ],
      [
        "கை",
        "து"
      ],
      [
        "அரு",
        "கே"
      ],
      [
        "உள்ள",
        "ிட்ட"
      ],
      [
        "வே",
        "று"
      ],
      [
        "க",
        "ன்"
      ],
      [
        "இந்",
        "நிலையில்"
      ],
      [
        "தொடர்",
        "ந்து"
      ],
      [
        "ே",
        "ன்"
      ],
      [
        "எ",
        "ல்"
      ],
      [
        "விசா",
        "ரணை"
      ],
      [
        "ங்கள",
        "ை"
      ],
      [
        "ரு",
        "ந்த"
      ],
      [
        "ந",
        "ெ"
      ],
      [
        "செ",
        "ன்று"
      ],
      [
        "வி",
        "ட்டு"
      ],
      [
        "செ",
        "ல்"
      ],
      [
        "்க",
        "ா"
      ],
      [
        "த",
        "ற்க"
      ],
      [
        "க",
        "ட்ட"
      ],
      [
        "த",
        "வி"
      ],
      [
        "ண்ட",
        "ி"
      ],
      [
        "கூ",
        "ட்ட"
      ],
      [
        "உ",
        "த்த"
      ],
      [
        "ளி",
        "ன்"
      ],
      [
        "ப்படு",
        "கிறது"
      ],
      [
        "டி",
        "த்து"
      ],
      [
        "செ",
        "ன்ற"
      ],
      [
        "அ",
        "ணி"
      ],
      [
        "ம",
        "ைய"
      ],
      [
        "ல",
        "ோ"
      ],
      [
        "ஆ",
        "னால்"
      ],
      [
        "அ",
        "டை"
      ],
      [
        "நில",
        "ைய"
      ],
      [
        "வ",
        "டிக்க"
      ],
      [
        "ட",
        "்ப"
      ],
      [
        "ம",
        "து"
      ],
      [
        "நட",
        "வடிக்க"
      ],
      [
        "க்க",
        "ப்பட்ட"
      ],
      [
        "ப",
        "ரி"
      ],
      [
        "கூ",
        "றி"
      ],
      [
        "அ",
        "னை"
      ],
      [
        "க",
        "ையில்"
      ],
      [
        "ஈ",
        "டு"
      ],
      [
        "நா",
        "ட"
      ],
      [
        "ப",
        "ை"
      ],
      [
        "்க",
        "ி"
      ],
      [
        "லா",
        "ம்"
      ],
      [
        "ச",
        "ூ"
      ],
      [
        "ப",
        "ணி"
      ],
      [
        "த",
        "ில்"
      ],
      [
        "போ",
        "ரா"
      ],
      [
        "ஆ",
        "யி"
      ],
      [
        "தேர்த",
        "ல்"
      ],
      [
        "க்கிற",
        "து"
      ],
      [
        "வு",
        "க்கு"
      ],
      [
        "ச",
        "ட்ட"
      ],
      [
        "பி",
        "ற"
      ],
      [
        "த்தி",
        "ன்"
      ],
      [
        "அதி",
        "க"
      ],
      [
        "அப்ப",
        "ோது"
      ],
      [
        "கொ",
        "ள்ள"
      ],
      [
        "இ",
        "ல்"
      ],
      [
        "ு",
        "டன்"
      ],
      [
        "மு",
        "றை"
      ],
      [
        "கா",
        "லை"
      ],
      [
        "அறி",
        "வி"
      ],
      [
        "வி",
        "ன்"
      ],
      [
        "உ",
        "ய"
      ],
      [
        "மே",
        "லும்"
      ],
      [
        "தா",
        "ன்"
      ],
      [
        "ர",
        "ஸ்"
      ],
      [
        "கட",
        "்சி"
      ],
      [
        "பெ",
        "ற"
      ],
      [
        "வ",
        "ரி"
      ],
      [
        "செய",
        "லா"
      ],
      [
        "ர்",
        "வு"
      ],
      [
        "ழ",
        "ந்த"
      ],
      [
        "ல",
        "ே"
      ],
      [
        "ம",
        "ன"
      ],
      [
        "ோ",
        "ம்"
      ],
      [
        "நி",
        "ர்"
      ],
      [
        "வி",
        "வ"
      ],
      [
        "ஆ",
        "ர்"
      ],
      [
        "ைய",
        "டுத்து"
      ],
      [
        "ர",
        "த்தில்"
      ],
      [
        "ல",
        "ையில்"
      ],
      [
        "எ",
        "ஸ்"
      ],
      [
        "ய",
        "ம்"
      ],
      [
        "இ",
        "ற"
      ],
      [
        "அ",
        "ங்கு"
      ],
      [
        "க்க",
        "ிய"
      ],
      [
        "த",
        "ூ"
      ],
      [
        "க",
        "்ட"
      ],
      [
        "க்க",
        "ை"
      ],
      [
        "தீ",
        "விர"
      ],
      [
        "நடவடிக்க",
        "ை"
      ],
      [
        "இந்த",
        "ிய"
      ],
      [
        "செ",
        "ல்ல"
      ],
      [
        "ச",
        "ை"
      ],
      [
        "மு",
        "ழு"
      ],
      [
        "த",
        "ோ"
      ],
      [
        "வி",
        "ழ"
      ],
      [
        "பகு",
        "தி"
      ],
      [
        "ப்ப",
        "ை"
      ],
      [
        "மூ",
        "லம்"
      ],
      [
        "கா",
        "ங்கி"
      ],
      [
        "ப",
        "டி"
      ],
      [
        "பா",
        "து"
      ],
      [
        "அ",
        "லு"
      ],
      [
        "ஜெ",
        "ய"
      ],
      [
        "பா",
        "ஜ"
      ],
      [
        "இத",
        "ை"
      ],
      [
        "வீ",
        "ர"
      ],
      [
        "பொ",
        "ரு"
      ],
      [
        "பாது",
        "கா"
      ],
      [
        "ங்க",
        "ா"
      ],
      [
        "்க",
        "ு"
      ],
      [
        "சம்ப",
        "வ"
      ],
      [
        "அலு",
        "வல"
      ],
      [
        "வி",
        "டு"
      ],
      [
        "த",
        "ற்ப"
      ],
      [
        "நி",
        "லை"
      ],
      [
        "ீ",
        "ர்"
      ],
      [
        "பகு",
        "தியில்"
      ],
      [
        "ச",
        "ந்தி"
      ],
      [
        "நட",
        "த்த"
      ],
      [
        "பா",
        "தி"
      ],
      [
        "பின்",
        "னர்"
      ],
      [
        "உத்த",
        "ர"
      ],
      [
        "போ",
        "ட்ட"
      ],
      [
        "தி",
        "முக"
      ],
      [
        "க்க",
        "ில்"
      ],
      [
        "பல்",
        "வேறு"
      ],
      [
        "வா",
        "ய"
      ],
      [
        "நா",
        "டு"
      ],
      [
        "ந",
        "ோ"
      ],
      [
        "முதல்",
        "வர்"
      ],
      [
        "நீ",
        "ர்"
      ],
      [
        "ம",
        "்த"
      ],
      [
        "தி",
        "ட்ட"
      ],
      [
        "இத",
        "ையடுத்து"
      ],
      [
        "ப்பட்டு",
        "ள்ளது"
      ],
      [
        "ழ",
        "்"
      ],
      [
        "ள",
        "ா"
      ],
      [
        "த",
        "வ"
      ],
      [
        "ச",
        "ன்"
      ],
      [
        "கிற",
        "ார்"
      ],
      [
        "ஏற்ப",
        "ட்ட"
      ],
      [
        "அ",
        "வரது"
      ],
      [
        "நக",
        "ர்"
      ],
      [
        "ல்",
        "லி"
      ],
      [
        "ள",
        "ம்"
      ],
      [
        "பு",
        "து"
      ],
      [
        "எ",
        "ழு"
      ],
      [
        "அ",
        "டுத்த"
      ],
      [
        "எ",
        "டுக்க"
      ],
      [
        "ள",
        "ர்கள்"
      ],
      [
        "ச",
        "ர"
      ],
      [
        "தற்ப",
        "ோது"
      ],
      [
        "கி",
        "ராம"
      ],
      [
        "ரு",
        "ந்து"
      ],
      [
        "உ",
        "ள"
      ],
      [
        "அ",
        "டி"
      ],
      [
        "அதி",
        "முக"
      ],
      [
        "அதிகாரி",
        "கள்"
      ],
      [
        "க",
        "ல்"
      ],
      [
        "மி",
        "ன்"
      ],
      [
        "ர்கள",
        "ை"
      ],
      [
        "பா",
        "ர்த்த"
      ],
      [
        "வந்த",
        "து"
      ],
      [
        "க்க",
        "ாக"
      ],
      [
        "விழ",
        "ா"
      ],
      [
        "பெ",
        "ய"
      ],
      [
        "்ப",
        "ட"
      ],
      [
        "த",
        "னை"
      ],
      [
        "பு",
        "ரம்"
      ],
      [
        "ர",
        "ெ"
      ],
      [
        "ரி",
        "த்து"
      ],
      [
        "வா",
        "க்கு"
      ],
      [
        "ைய",
        "ே"
      ],
      [
        "ப",
        "ள்ளி"
      ],
      [
        "கா",
        "ல"
      ],
      [
        "பெ",
        "ற்று"
      ],
      [
        "கி",
        "டை"
      ],
      [
        "கா",
        "ரண"
      ],
      [
        "ன",
        "்ட"
      ],
      [
        "காங்கி",
        "ரஸ்"
      ],
      [
        "நிர்",
        "வாக"
      ],
      [
        "ம",
        "னு"
      ],
      [
        "பர",
        "பர"
      ],
      [
        "க்க",
        "ான"
      ],
      [
        "கட",
        "ை"
      ],
      [
        "மாவட்ட",
        "ம்"
      ],
      [
        "ச்ச",
        "ை"
      ],
      [
        "ங்கள",
        "ுக்கு"
      ],
      [
        "அ",
        "ண"
      ],
      [
        "ன்ற",
        "ன"
      ],
      [
        "செய்த",
        "னர்"
      ],
      [
        "தக",
        "வல்"
      ],
      [
        "தலை",
        "ம"
      ],
      [
        "செயலா",
        "ளர்"
      ],
      [
        "ர",
        "யில்"
      ],
      [
        "வை",
        "த்து"
      ],
      [
        "வே",
        "லை"
      ],
      [
        "ரி",
        "ன்"
      ],
      [
        "உ",
        "று"
      ],
      [
        "ிரு",
        "ந்த"
      ],
      [
        "ப",
        "ர்"
      ],
      [
        "ச",
        "ங்க"
      ],
      [
        "இ",
        "ல"
      ],
      [
        "ப",
        "ட்டு"
      ],
      [
        "வ",
        "ன்"
      ],
      [
        "்த",
        "ி"
      ],
      [
        "டிய",
        "ாக"
      ],
      [
        "நீதி",
        "மன்ற"
      ],
      [
        "க்க",
        "ல்"
      ],
      [
        "இ",
        "வ்"
      ],
      [
        "தெ",
        "ரிய"
      ],
      [
        "ர்கள",
        "ுக்கு"
      ],
      [
        "தெரிவி",
        "த்து"
      ],
      [
        "ஊ",
        "ழ"
      ],
      [
        "எதி",
        "ர்"
      ],
      [
        "இது",
        "குறித்து"
      ],
      [
        "த்தி",
        "ற்கு"
      ],
      [
        "கு",
        "ழந்த"
      ],
      [
        "ப",
        "ில்"
      ],
      [
        "க",
        "ழ"
      ],
      [
        "நிறு",
        "வன"
      ],
      [
        "ஆகிய",
        "ோர்"
      ],
      [
        "த்த",
        "து"
      ],
      [
        "கல",
        "ந்து"
      ],
      [
        "த்த",
        "ா"
      ],
      [
        "ச",
        "ர்"
      ],
      [
        "ண்ண",
        "ா"
      ],
      [
        "திரு",
        "வ"
      ],
      [
        "பி",
        "ரி"
      ],
      [
        "உ",
        "ல"
      ],
      [
        "த",
        "ன்"
      ],
      [
        "ண",
        "ா"
      ],
      [
        "ம",
        "ொ"
      ],
      [
        "வெ",
        "ற்றி"
      ],
      [
        "ரா",
        "ட்சி"
      ],
      [
        "ிய",
        "ல்"
      ],
      [
        "வ",
        "ச"
      ],
      [
        "வா",
        "று"
      ],
      [
        "ஸ்ட",
        "்"
      ],
      [
        "இ",
        "ர"
      ],
      [
        "தலை",
        "மை"
      ],
      [
        "வி",
        "ட"
      ],
      [
        "தி",
        "ன"
      ],
      [
        "முடி",
        "வு"
      ],
      [
        "கு",
        "றை"
      ],
      [
        "ச்ச",
        "ா"
      ],
      [
        "ச்ச",
        "ு"
      ],
      [
        "ட",
        "ியா"
      ],
      [
        "ப்ப",
        "ில்"
      ],
      [
        "நா",
        "ள்"
      ],
      [
        "பாதுகா",
        "ப்பு"
      ],
      [
        "க்க",
        "ொ"
      ],
      [
        "கோ",
        "டி"
      ],
      [
        "்ப",
        "்ப"
      ],
      [
        "மு",
        "ற"
      ],
      [
        "த",
        "ங்க"
      ],
      [
        "அமைச்ச",
        "ர்"
      ],
      [
        "தி",
        "ற"
      ],
      [
        "ண",
        "ைய"
      ],
      [
        "ல்ல",
        "ூ"
      ],
      [
        "கொ",
        "லை"
      ],
      [
        "ஒ",
        "ன்ற"
      ],
      [
        "ப்ப",
        "து"
      ],
      [
        "்க",
        "ளை"
      ],
      [
        "விவ",
        "சா"
      ],
      [
        "வது",
        "ம்"
      ],
      [
        "தொ",
        "ழி"
      ],
      [
        "ப",
        "ழ"
      ],
      [
        "மா",
        "த"
      ],
      [
        "ப",
        "டு"
      ],
      [
        "நி",
        "தி"
      ],
      [
        "லட்ச",
        "ம்"
      ],
      [
        "ம",
        "ன்"
      ],
      [
        "எ",
        "டுத்து"
      ],
      [
        "்த",
        "ு"
      ],
      [
        "த",
        "யா"
      ],
      [
        "தன",
        "து"
      ],
      [
        "பெ",
        "ண்"
      ],
      [
        "செய",
        "ல்"
      ],
      [
        "அவ",
        "ர்கள்"
      ],
      [
        "விள",
        "ையா"
      ],
      [
        "என்ப",
        "து"
      ],
      [
        "ிய",
        "ே"
      ],
      [
        "மணி",
        "க்கு"
      ],
      [
        "க்க",
        "ப்பட்டது"
      ],
      [
        "த",
        "ல"
      ],
      [
        "க்க",
        "ோ"
      ],
      [
        "ெ",
        "க்ட"
      ],
      [
        "பெ",
        "ரும்"
      ],
      [
        "ய்",
        "வு"
      ],
      [
        "சி",
        "று"
      ],
      [
        "ரா",
        "ம்"
      ],
      [
        "ப",
        "க"
      ],
      [
        "தொடர்",
        "பாக"
      ],
      [
        "இத",
        "ற்க"
      ],
      [
        "பு",
        "கார்"
      ],
      [
        "சேர்ந்த",
        "வர்"
      ],
      [
        "கூ",
        "று"
      ],
      [
        "சா",
        "மி"
      ],
      [
        "பு",
        "திய"
      ],
      [
        "ஜ",
        "ா"
      ],
      [
        "ம",
        "ழை"
      ],
      [
        "க",
        "ீ"
      ],
      [
        "ெ",
        "ட்"
      ],
      [
        "போலீ",
        "ஸ்"
      ],
      [
        "வே",
        "ட்ப"
      ],
      [
        "ைய",
        "ாக"
      ],
      [
        "ஆயி",
        "ரம்"
      ],
      [
        "இவ்",
        "வாறு"
      ],
      [
        "க்க",
        "ள்"
      ],
      [
        "போ",
        "ட்டி"
      ],
      [
        "மா",
        "லை"
      ],
      [
        "அ",
        "ள"
      ],
      [
        "து",
        "றை"
      ],
      [
        "த்த",
        "ம்"
      ],
      [
        "நட",
        "ந்தது"
      ],
      [
        "க்கிற",
        "ார்"
      ],
      [
        "நட",
        "ந்த"
      ],
      [
        "பிர",
        "த"
      ],
      [
        "ராஜ",
        "்"
      ],
      [
        "ப",
        "ற்றி"
      ],
      [
        "ம",
        "லை"
      ],
      [
        "அனை",
        "த்து"
      ],
      [
        "கள",
        "ும்"
      ],
      [
        "சார்",
        "பில்"
      ],
      [
        "இ",
        "ன்"
      ],
      [
        "ந்தி",
        "ர"
      ],
      [
        "வ",
        "தாக"
      ],
      [
        "ன்ற",
        "ி"
      ],
      [
        "திரு",
        "மண"
      ],
      [
        "ண",
        "ம்"
      ],
      [
        "என்ற",
        "ார்"
      ],
      [
        "தி",
        "ட"
      ],
      [
        "முழு",
        "வதும்"
      ],
      [
        "தா",
        "ன"
      ],
      [
        "ங்க",
        "ே"
      ],
      [
        "போ",
        "ல்"
      ],
      [
        "சி",
        "கி"
      ],
      [
        "குழந்த",
        "ை"
      ],
      [
        "கோ",
        "ர்"
      ],
      [
        "செய்ய",
        "ப்பட்ட"
      ],
      [
        "நா",
        "ய"
      ],
      [
        "ஆ",
        "ட்ட"
      ],
      [
        "ிய",
        "ார்"
      ],
      [
        "எம்",
        "எல்"
      ],
      [
        "வெள",
        "ியி"
      ],
      [
        "து",
        "ணை"
      ],
      [
        "கு",
        "ழு"
      ],
      [
        "வ",
        "ள"
      ],
      [
        "ப்ப",
        "தி"
      ],
      [
        "பி",
        "டி"
      ],
      [
        "க",
        "ன"
      ],
      [
        "பா",
        "ல"
      ],
      [
        "க",
        "ும்"
      ],
      [
        "ர்க",
        "ளின்"
      ],
      [
        "க",
        "ல்லூ"
      ],
      [
        "தே",
        "ர்வு"
      ],
      [
        "மு",
        "ய"
      ],
      [
        "அ",
        "ழை"
      ],
      [
        "ளி",
        "டம்"
      ],
      [
        "சோ",
        "தனை"
      ],
      [
        "எம்எல்",
        "ஏ"
      ],
      [
        "்கி",
        "ற"
      ],
      [
        "இ",
        "ப்ப"
      ],
      [
        "ந்த",
        "ார்"
      ],
      [
        "வரு",
        "க்கு"
      ],
      [
        "பு",
        "ற"
      ],
      [
        "ா",
        "ர்கள்"
      ],
      [
        "சிகி",
        "ச்சை"
      ],
      [
        "ப",
        "றி"
      ],
      [
        "வீ",
        "டு"
      ],
      [
        "ஏற்பட்ட",
        "து"
      ],
      [
        "வி",
        "ரை"
      ],
      [
        "இ",
        "ரவு"
      ],
      [
        "உட",
        "ன"
      ],
      [
        "ம",
        "று"
      ],
      [
        "வி",
        "தி"
      ],
      [
        "டெ",
        "ல்லி"
      ],
      [
        "உள",
        "்பட"
      ],
      [
        "வாய",
        "்ப்ப"
      ],
      [
        "த்து",
        "றை"
      ],
      [
        "ப",
        "ீ"
      ],
      [
        "தா",
        "வது"
      ],
      [
        "இல்",
        "லை"
      ],
      [
        "போ",
        "ன்ற"
      ],
      [
        "கா",
        "ய"
      ],
      [
        "எ",
        "ந்த"
      ],
      [
        "வ",
        "ம்"
      ],
      [
        "ள்ள",
        "ன"
      ],
      [
        "ல",
        "ுக்கு"
      ],
      [
        "மா",
        "ற்ற"
      ],
      [
        "ர்த்த",
        "ி"
      ],
      [
        "கி",
        "ன்றன"
      ],
      [
        "ண",
        "ு"
      ],
      [
        "களி",
        "ன்"
      ],
      [
        "ியா",
        "ன"
      ],
      [
        "ல",
        "லி"
      ],
      [
        "மனை",
        "வி"
      ],
      [
        "ய",
        "ே"
      ],
      [
        "ட்டு",
        "க்கு"
      ],
      [
        "வ",
        "ய"
      ],
      [
        "ற",
        "்சி"
      ],
      [
        "மு",
        "டியா"
      ],
      [
        "வெ",
        "ளி"
      ],
      [
        "ள",
        "ு"
      ],
      [
        "வ",
        "டி"
      ],
      [
        "வாக",
        "ன"
      ],
      [
        "ியு",
        "ள்ளது"
      ],
      [
        "தொ",
        "குதி"
      ],
      [
        "ந்த",
        "னர்"
      ],
      [
        "லலி",
        "தா"
      ],
      [
        "மீ",
        "ண்டும்"
      ],
      [
        "அ",
        "வரை"
      ],
      [
        "திய",
        "ை"
      ],
      [
        "மீ",
        "ன"
      ],
      [
        "த்தி",
        "ரு"
      ],
      [
        "ங்க",
        "ை"
      ],
      [
        "ஏற்ப",
        "ட்டு"
      ],
      [
        "அ",
        "தே"
      ],
      [
        "ரிக்க",
        "ை"
      ],
      [
        "ஊழ",
        "ிய"
      ],
      [
        "நட",
        "ந்து"
      ],
      [
        "ந",
        "ிய"
      ],
      [
        "பெ",
        "ண"
      ],
      [
        "நா",
        "ளை"
      ],
      [
        "வி",
        "மான"
      ],
      [
        "பிற",
        "கு"
      ],
      [
        "ியி",
        "ரு"
      ],
      [
        "ச",
        "ந்த"
      ],
      [
        "ஜெய",
        "லலிதா"
      ],
      [
        "குற்ற",
        "ம்"
      ],
      [
        "கு",
        "டி"
      ],
      [
        "கொ",
        "டுத்த"
      ],
      [
        "ச",
        "ம்"
      ],
      [
        "உ",
        "யி"
      ],
      [
        "ஞ",
        "்சி"
      ],
      [
        "னா",
        "ள்"
      ],
      [
        "ம்",
        "பி"
      ],
      [
        "சா",
        "லை"
      ],
      [
        "லா",
        "த"
      ],
      [
        "ர",
        "ியா"
      ],
      [
        "த",
        "னி"
      ],
      [
        "வி",
        "ஜ"
      ],
      [
        "கு",
        "தியில்"
      ],
      [
        "பதி",
        "வு"
      ],
      [
        "டும்",
        "ப"
      ],
      [
        "லா",
        "ன"
      ],
      [
        "ட்ட",
        "ும்"
      ],
      [
        "கட",
        "்ச"
      ],
      [
        "சி",
        "ரிய"
      ],
      [
        "ச",
        "ில்"
      ],
      [
        "அனு",
        "மதி"
      ],
      [
        "ம",
        "ட்டு"
      ],
      [
        "ஸ்ப",
        "ி"
      ],
      [
        "ள்ள",
        "ூர்"
      ],
      [
        "உள்ள",
        "னர்"
      ],
      [
        "முன்",
        "னாள்"
      ],
      [
        "கி",
        "ட"
      ],
      [
        "வேட்ப",
        "ா"
      ],
      [
        "தன",
        "ியார்"
      ],
      [
        "ப",
        "ஸ்"
      ],
      [
        "ப",
        "ார்"
      ],
      [
        "பிர",
        "ச்"
      ],
      [
        "எ",
        "ன்"
      ],
      [
        "ரி",
        "டம்"
      ],
      [
        "கு",
        "டும்ப"
      ],
      [
        "மே",
        "ற்க"
      ],
      [
        "ல",
        "ூர்"
      ],
      [
        "பே",
        "சி"
      ],
      [
        "ொ",
        "ரு"
      ],
      [
        "வு",
        "ன்"
      ],
      [
        "வ",
        "ார்"
      ],
      [
        "மா",
        "தம்"
      ],
      [
        "மே",
        "ற்ப"
      ],
      [
        "இ",
        "வர்"
      ],
      [
        "லி",
        "ன்"
      ],
      [
        "உ",
        "ற"
      ],
      [
        "போரா",
        "ட்ட"
      ],
      [
        "த",
        "ற்கு"
      ],
      [
        "மு",
        "ன்ன"
      ],
      [
        "வி",
        "ன"
      ],
      [
        "கூறி",
        "னார்"
      ],
      [
        "தா",
        "ர"
      ],
      [
        "மு",
        "க்கிய"
      ],
      [
        "ப்ப",
        "தாக"
      ],
      [
        "க",
        "ட்டி"
      ],
      [
        "நா",
        "ள"
      ],
      [
        "ஷ்",
        "ண"
      ],
      [
        "தொட",
        "ங்க"
      ],
      [
        "அத",
        "ன்"
      ],
      [
        "கி",
        "ரு"
      ],
      [
        "ெக்ட",
        "ர்"
      ],
      [
        "ன",
        "ில்"
      ],
      [
        "வி",
        "ப"
      ],
      [
        "வ",
        "ட"
      ],
      [
        "உய",
        "ர்"
      ],
      [
        "ே",
        "ரி"
      ],
      [
        "வி",
        "ரு"
      ],
      [
        "அத",
        "ில்"
      ],
      [
        "அத",
        "ை"
      ],
      [
        "நே",
        "ர"
      ],
      [
        "வ",
        "ங்க"
      ],
      [
        "ப",
        "்ட"
      ],
      [
        "மருத்துவ",
        "மனை"
      ],
      [
        "ப்ப",
        "டை"
      ],
      [
        "செ",
        "ன்ன"
      ],
      [
        "த",
        "ண்ண"
      ],
      [
        "தமிழ",
        "்"
      ],
      [
        "பிரத",
        "மர்"
      ],
      [
        "நடை",
        "பெற"
      ],
      [
        "பிர",
        "சா"
      ],
      [
        "வந்த",
        "ார்"
      ],
      [
        "மக்க",
        "ள"
      ],
      [
        "அ",
        "ம்"
      ],
      [
        "க்கப்பட்டு",
        "ள்ளது"
      ],
      [
        "இ",
        "ணை"
      ],
      [
        "ப",
        "யி"
      ],
      [
        "க்க",
        "ூ"
      ],
      [
        "ந",
        "ாக"
      ],
      [
        "பண",
        "ம்"
      ],
      [
        "ஜ",
        "ோ"
      ],
      [
        "தீ",
        "ர்"
      ],
      [
        "என",
        "வே"
      ],
      [
        "விவசா",
        "யி"
      ],
      [
        "சிற",
        "ப்பு"
      ],
      [
        "க",
        "த்தில்"
      ],
      [
        "ச",
        "த"
      ],
      [
        "ய",
        "ு"
      ],
      [
        "உ",
        "ரு"
      ],
      [
        "இய",
        "க்கு"
      ],
      [
        "நாட",
        "்கள"
      ],
      [
        "ிய",
        "ும்"
      ],
      [
        "நீதி",
        "பதி"
      ],
      [
        "வந்த",
        "னர்"
      ],
      [
        "இட",
        "ங்களில்"
      ],
      [
        "ஏ",
        "ற்க"
      ],
      [
        "க",
        "ண்ட"
      ],
      [
        "சு",
        "ற்று"
      ],
      [
        "வர்கள",
        "ுக்கு"
      ],
      [
        "ஷ",
        "ா"
      ],
      [
        "வரு",
        "கிறார்"
      ],
      [
        "தற்க",
        "ாக"
      ],
      [
        "ையி",
        "ன்"
      ],
      [
        "வாய்ப்ப",
        "ு"
      ],
      [
        "ஏற்ப",
        "டுத்த"
      ],
      [
        "ர",
        "த்து"
      ],
      [
        "்ச",
        "்ச"
      ],
      [
        "த்த",
        "ூர்"
      ],
      [
        "ஈடு",
        "பட்ட"
      ],
      [
        "அதி",
        "ர்"
      ],
      [
        "ஷ",
        "ன்"
      ],
      [
        "வீ",
        "ட்டில்"
      ],
      [
        "மேற்ப",
        "ட்ட"
      ],
      [
        "போ",
        "க்கு"
      ],
      [
        "ண்ட",
        "ிய"
      ],
      [
        "விசா",
        "ரி"
      ],
      [
        "கூறு",
        "கையில்"
      ],
      [
        "வி",
        "ழு"
      ],
      [
        "அ",
        "மெ"
      ],
      [
        "கோ",
        "யி"
      ],
      [
        "தா",
        "க்கல்"
      ],
      [
        "வெள",
        "ியே"
      ],
      [
        "ப்ப",
        "ே"
      ],
      [
        "கே",
        "ட்டு"
      ],
      [
        "அமெ",
        "ரிக்க"
      ],
      [
        "வழ",
        "ி"
      ],
      [
        "பரபர",
        "ப்பு"
      ],
      [
        "விட்ட",
        "ார்"
      ],
      [
        "கு",
        "மார்"
      ],
      [
        "நா",
        "ன்"
      ],
      [
        "அ",
        "ட"
      ],
      [
        "வர",
        "த்து"
      ],
      [
        "ஸ",
        "்க"
      ],
      [
        "ி",
        "ஸ்த"
      ],
      [
        "பா",
        "ர்க்க"
      ],
      [
        "தமிழக",
        "த்தில்"
      ],
      [
        "தா",
        "க்கு"
      ],
      [
        "செ",
        "ல"
      ],
      [
        "கட",
        "ும்"
      ],
      [
        "மி",
        "க"
      ],
      [
        "கல்லூ",
        "ரி"
      ],
      [
        "பக",
        "்த"
      ],
      [
        "மு",
        "டிய"
      ],
      [
        "முன்",
        "பு"
      ],
      [
        "வா",
        "தி"
      ],
      [
        "த்தி",
        "னர்"
      ],
      [
        "நிர்வாக",
        "ி"
      ],
      [
        "இத",
        "ன்"
      ],
      [
        "ர்த்த",
        "ு"
      ],
      [
        "க",
        "ட்டு"
      ],
      [
        "மருத்துவ",
        "மன"
      ],
      [
        "கோ",
        "யில்"
      ],
      [
        "ரா",
        "ய"
      ],
      [
        "ம",
        "ல"
      ],
      [
        "பய",
        "ன்ப"
      ],
      [
        "வி",
        "ல"
      ],
      [
        "பெ",
        "ரு"
      ],
      [
        "ூ",
        "ரில்"
      ],
      [
        "மேற்க",
        "ொ"
      ],
      [
        "இரு",
        "க்கும்"
      ],
      [
        "ம",
        "்க"
      ],
      [
        "குறி",
        "ப்பி"
      ],
      [
        "ட",
        "ாக"
      ],
      [
        "லே",
        "யே"
      ],
      [
        "நி",
        "கழ"
      ],
      [
        "ஞ்ச",
        "ா"
      ],
      [
        "செ",
        "ன்றனர்"
      ],
      [
        "பாக",
        "ிஸ்த"
      ],
      [
        "சி",
        "க"
      ],
      [
        "க்கி",
        "ன்றனர்"
      ],
      [
        "தெ",
        "ரு"
      ],
      [
        "ியு",
        "ள்ளார்"
      ],
      [
        "த்தி",
        "ர"
      ],
      [
        "த்து",
        "டன்"
      ],
      [
        "நி",
        "றை"
      ],
      [
        "பெ",
        "ரிய"
      ],
      [
        "அனு",
        "ப்பி"
      ],
      [
        "்கு",
        "மார்"
      ],
      [
        "ஹ",
        "ீ"
      ],
      [
        "விட்ட",
        "து"
      ],
      [
        "பகுதி",
        "களில்"
      ],
      [
        "காரண",
        "மாக"
      ],
      [
        "தலைம",
        "ையில்"
      ],
      [
        "ன",
        "ும்"
      ],
      [
        "ப்ப",
        "ாக"
      ],
      [
        "ர்க",
        "ளிடம்"
      ],
      [
        "த",
        "ர்"
      ],
      [
        "வ",
        "கையில்"
      ],
      [
        "ப",
        "ங்கே"
      ],
      [
        "த்த",
        "ும்"
      ],
      [
        "ம",
        "கன்"
      ],
      [
        "கோ",
        "ரிக்கை"
      ],
      [
        "திருவ",
        "ள்ளூர்"
      ],
      [
        "தே",
        "ச"
      ],
      [
        "சி",
        "னி"
      ],
      [
        "கூ",
        "டு"
      ],
      [
        "நடத்தி",
        "னர்"
      ],
      [
        "ப்ப",
        "டுத்த"
      ],
      [
        "உ",
        "தவி"
      ],
      [
        "ஜ",
        "்"
      ],
      [
        "மே",
        "ல்"
      ],
      [
        "செய",
        "்"
      ],
      [
        "பா",
        "ல்"
      ],
      [
        "ற",
        "ிய"
      ],
      [
        "மண",
        "ிய"
      ],
      [
        "க்க",
        "ீ"
      ],
      [
        "பய",
        "ணி"
      ],
      [
        "ஆ",
        "ணைய"
      ],
      [
        "க",
        "ெ"
      ],
      [
        "ட்ட",
        "ா"
      ],
      [
        "சி",
        "வ"
      ],
      [
        "ம்",
        "பு"
      ],
      [
        "த",
        "ண்ட"
      ],
      [
        "ஆ",
        "சிரிய"
      ],
      [
        "மருத்துவமன",
        "ையில்"
      ],
      [
        "பே",
        "ச்சு"
      ],
      [
        "சினி",
        "மா"
      ],
      [
        "அ",
        "து"
      ],
      [
        "்த",
        "ான்"
      ],
      [
        "பொரு",
        "ட"
      ],
      [
        "வி",
        "ண்ண"
      ],
      [
        "மு",
        "த"
      ],
      [
        "உ",
        "ண"
      ],
      [
        "ஹீ",
        "ரோ"
      ],
      [
        "த்த",
        "ால்"
      ],
      [
        "பொ",
        "று"
      ],
      [
        "பண",
        "ியா"
      ],
      [
        "கா",
        "ண"
      ],
      [
        "த",
        "டை"
      ],
      [
        "ரா",
        "ன"
      ],
      [
        "ரா",
        "ணு"
      ],
      [
        "உட",
        "ல்"
      ],
      [
        "சி",
        "ன்"
      ],
      [
        "உ",
        "டை"
      ],
      [
        "அர",
        "சிய"
      ],
      [
        "ந",
        "ு"
      ],
      [
        "இ",
        "வரது"
      ],
      [
        "ம",
        "டை"
      ],
      [
        "ு",
        "க்கும்"
      ],
      [
        "ஒ",
        "து"
      ],
      [
        "்ச",
        "்சி"
      ],
      [
        "மோ",
        "டி"
      ],
      [
        "ஸ்",
        "ரீ"
      ],
      [
        "முன்",
        "னி"
      ],
      [
        "நடை",
        "பெற்ற"
      ],
      [
        "வி",
        "க்க"
      ],
      [
        "வல",
        "ியு"
      ],
      [
        "உள்ள",
        "ன"
      ],
      [
        "இ",
        "டம்"
      ],
      [
        "ஆ",
        "லோ"
      ],
      [
        "ஸ்ட",
        "ா"
      ],
      [
        "ஆ",
        "த"
      ],
      [
        "வலியு",
        "று"
      ],
      [
        "மு",
        "ரு"
      ],
      [
        "ீ",
        "ரெ"
      ],
      [
        "டு",
        "த்தி"
      ],
      [
        "கிரு",
        "ஷ்ண"
      ],
      [
        "ம",
        "ண்ட"
      ],
      [
        "ஆ",
        "ய்வு"
      ],
      [
        "ட",
        "ே"
      ],
      [
        "ங்க",
        "ல்"
      ],
      [
        "நட",
        "க்கிறது"
      ],
      [
        "போலீ",
        "சா"
      ],
      [
        "ந",
        "கை"
      ],
      [
        "திட",
        "ீரெ"
      ],
      [
        "மாண",
        "வி"
      ],
      [
        "ட்ட",
        "ர்"
      ],
      [
        "லா",
        "ரி"
      ],
      [
        "இரு",
        "ந்தது"
      ],
      [
        "பொது",
        "மக்கள்"
      ],
      [
        "உல",
        "க"
      ],
      [
        "ல",
        "ாக"
      ],
      [
        "மு",
        "ன"
      ],
      [
        "செய்த",
        "ார்"
      ],
      [
        "ப்ப",
        "டி"
      ],
      [
        "ர",
        "ியில்"
      ],
      [
        "ந",
        "ல்ல"
      ],
      [
        "சென்ன",
        "ையில்"
      ],
      [
        "டி",
        "ரை"
      ],
      [
        "இ",
        "ங்கு"
      ],
      [
        "போரா",
        "ட்டம்"
      ],
      [
        "வ",
        "சி"
      ],
      [
        "தே",
        "சிய"
      ],
      [
        "வ",
        "ங்கி"
      ],
      [
        "கல்",
        "வி"
      ],
      [
        "ப்பதி",
        "வு"
      ],
      [
        "வ",
        "கு"
      ],
      [
        "சு",
        "மார்"
      ],
      [
        "வி",
        "னர்"
      ],
      [
        "வா",
        "ழ"
      ],
      [
        "கா",
        "ல்"
      ],
      [
        "அ",
        "ல்ல"
      ],
      [
        "போக்கு",
        "வரத்து"
      ],
      [
        "வா",
        "லி"
      ],
      [
        "இத",
        "ற்கு"
      ],
      [
        "ந்த",
        "்"
      ],
      [
        "பெ",
        "று"
      ],
      [
        "உறு",
        "ப்பி"
      ],
      [
        "உ",
        "ரி"
      ],
      [
        "ா",
        "டு"
      ],
      [
        "ர",
        "ூர்"
      ],
      [
        "ன்ப",
        "டி"
      ],
      [
        "சத",
        "வீ"
      ],
      [
        "தே",
        "வ"
      ],
      [
        "கூ",
        "ட்டம்"
      ],
      [
        "கே",
        "ர"
      ],
      [
        "ற",
        "்ச"
      ],
      [
        "ப",
        "தவி"
      ],
      [
        "பிரச்",
        "னை"
      ],
      [
        "தண்ண",
        "ீர்"
      ],
      [
        "ல",
        "்கள்"
      ],
      [
        "தேர்த",
        "லில்"
      ],
      [
        "விளையா",
        "ட்டு"
      ],
      [
        "அ",
        "க"
      ],
      [
        "ம",
        "ட்டும்"
      ],
      [
        "வா",
        "ன"
      ],
      [
        "க",
        "மி"
      ],
      [
        "ந",
        "ல"
      ],
      [
        "கூற",
        "ப்படுகிறது"
      ],
      [
        "நக",
        "ர"
      ],
      [
        "கே",
        "ட்ட"
      ],
      [
        "என்ற",
        "ும்"
      ],
      [
        "கூற",
        "ிய"
      ],
      [
        "மட்டு",
        "மே"
      ],
      [
        "தே",
        "டி"
      ],
      [
        "வர",
        "ம்"
      ],
      [
        "லி",
        "ருந்து"
      ],
      [
        "உடன",
        "டியாக"
      ],
      [
        "ண்ட",
        "ா"
      ],
      [
        "த்தி",
        "ருந்த"
      ],
      [
        "கா",
        "வல்"
      ],
      [
        "வெ",
        "ள்ள"
      ],
      [
        "ர",
        "ன"
      ],
      [
        "வி",
        "லை"
      ],
      [
        "விஜ",
        "ய"
      ],
      [
        "மாண",
        "வ"
      ],
      [
        "சி",
        "பி"
      ],
      [
        "மாண",
        "வர்கள்"
      ],
      [
        "க",
        "ண்டு"
      ],
      [
        "ச",
        "னை"
      ],
      [
        "செ",
        "லு"
      ],
      [
        "சிற",
        "ையில்"
      ],
      [
        "ய",
        "ூ"
      ],
      [
        "டா",
        "து"
      ],
      [
        "ரா",
        "ள"
      ],
      [
        "ன்ட",
        "்"
      ],
      [
        "பி",
        "டிக்க"
      ],
      [
        "ம",
        "ர"
      ],
      [
        "இல",
        "ங்கை"
      ],
      [
        "போட்ட",
        "ியி"
      ],
      [
        "ப்ப",
        "ோ"
      ],
      [
        "று",
        "தி"
      ],
      [
        "பா",
        "ய்"
      ],
      [
        "லா",
        "ந்து"
      ],
      [
        "தொழி",
        "லா"
      ],
      [
        "ஷ",
        "்ட"
      ],
      [
        "கண",
        "்கா"
      ],
      [
        "ப",
        "ஸ"
      ],
      [
        "வா",
        "ர்த்த"
      ],
      [
        "திடீரெ",
        "ன"
      ],
      [
        "செல்ல",
        "ும்"
      ],
      [
        "்ய",
        "ா"
      ],
      [
        "நே",
        "ரம்"
      ],
      [
        "வழ",
        "க்கில்"
      ],
      [
        "அ",
        "வருக்கு"
      ],
      [
        "ஒன்ற",
        "ிய"
      ],
      [
        "ஏ",
        "ராள"
      ],
      [
        "நிறு",
        "த்த"
      ],
      [
        "ழ",
        "ில்"
      ],
      [
        "தே",
        "ர்"
      ],
      [
        "பி",
        "டித்து"
      ],
      [
        "கொண்ட",
        "னர்"
      ],
      [
        "வரு",
        "கிற"
      ],
      [
        "ங்க",
        "ம்"
      ],
      [
        "ந்த",
        "ா"
      ],
      [
        "பண",
        "ியில்"
      ],
      [
        "மர்",
        "ம"
      ],
      [
        "செய்ய",
        "ப்பட்டு"
      ],
      [
        "ஜ",
        "ன"
      ],
      [
        "ஆகிய",
        "ோ"
      ],
      [
        "கூட்ட",
        "ணி"
      ],
      [
        "வய",
        "து"
      ],
      [
        "நிலைய",
        "த்தில்"
      ],
      [
        "ராணு",
        "வ"
      ],
      [
        "ர்",
        "ந்து"
      ],
      [
        "எ",
        "ஸ்பி"
      ],
      [
        "அழை",
        "த்து"
      ],
      [
        "த",
        "ள"
      ],
      [
        "வர்கள",
        "ை"
      ],
      [
        "ற்ற",
        "ில்"
      ],
      [
        "ஒரு",
        "வர்"
      ],
      [
        "வி",
        "ற்ப"
      ],
      [
        "டாக",
        "்ட"
      ],
      [
        "ள",
        "ைய"
      ],
      [
        "பா",
        "ட"
      ],
      [
        "ஏற்பட்டு",
        "ள்ளது"
      ],
      [
        "க்க",
        "ப்படும்"
      ],
      [
        "சி",
        "ங்"
      ],
      [
        "ன",
        "வே"
      ],
      [
        "ஸ்ட",
        "ி"
      ],
      [
        "கூ",
        "ட"
      ],
      [
        "ண்",
        "ணி"
      ],
      [
        "ஏராள",
        "மான"
      ],
      [
        "ஷ",
        "ி"
      ],
      [
        "தெரிவி",
        "த்தனர்"
      ],
      [
        "க",
        "ண்டி"
      ],
      [
        "திய",
        "ாக"
      ],
      [
        "வ",
        "ண"
      ],
      [
        "பார்த்த",
        "ு"
      ],
      [
        "திருமண",
        "ம்"
      ],
      [
        "்கள",
        "ில்"
      ],
      [
        "வழ",
        "ியாக"
      ],
      [
        "பே",
        "ர"
      ],
      [
        "கொ",
        "டுத்து"
      ],
      [
        "ற",
        "ும்"
      ],
      [
        "ஜ",
        "ூ"
      ],
      [
        "ல்",
        "லை"
      ],
      [
        "கா",
        "ஞ்சி"
      ],
      [
        "இரு",
        "வரும்"
      ],
      [
        "வா",
        "ய்"
      ],
      [
        "ல",
        "்க"
      ],
      [
        "நக",
        "ராட்சி"
      ],
      [
        "கி",
        "ரி"
      ],
      [
        "வி",
        "த"
      ],
      [
        "விசா",
        "ரண"
      ],
      [
        "ப",
        "டம்"
      ],
      [
        "லட்ச",
        "ு"
      ],
      [
        "கா",
        "யம்"
      ],
      [
        "ட",
        "்க"
      ],
      [
        "இ",
        "ங்கி"
      ],
      [
        "கர்",
        "நாட"
      ],
      [
        "பெண",
        "்கள்"
      ],
      [
        "ப",
        "டுத்த"
      ],
      [
        "வே",
        "ற்ற"
      ],
      [
        "வ",
        "கி"
      ],
      [
        "கொண்ட",
        "ிருந்த"
      ],
      [
        "சா",
        "லையில்"
      ],
      [
        "சம்பவ",
        "ம்"
      ],
      [
        "நே",
        "ரத்தில்"
      ],
      [
        "ட",
        "ையே"
      ],
      [
        "அத",
        "ற்கு"
      ],
      [
        "பு",
        "கா"
      ],
      [
        "ட",
        "ைய"
      ],
      [
        "ரி",
        "ச"
      ],
      [
        "வீ",
        "ட்டுக்கு"
      ],
      [
        "ங்க",
        "ிய"
      ],
      [
        "னி",
        "ன்"
      ],
      [
        "இரு",
        "க்க"
      ],
      [
        "ம",
        "சா"
      ],
      [
        "ரிய",
        "ாக"
      ],
      [
        "கி",
        "ழ"
      ],
      [
        "ப்ப",
        "ெ"
      ],
      [
        "வீர",
        "ர்கள்"
      ],
      [
        "ச",
        "ரி"
      ],
      [
        "இட",
        "ையே"
      ],
      [
        "ஏற்க",
        "னவே"
      ],
      [
        "சொ",
        "ந்த"
      ],
      [
        "நட",
        "த்திய"
      ],
      [
        "அரசிய",
        "ல்"
      ],
      [
        "வெ",
        "டி"
      ],
      [
        "விவ",
        "கா"
      ],
      [
        "எ",
        "ன்ன"
      ],
      [
        "மாவட்ட",
        "த்தில்"
      ],
      [
        "பே",
        "ரில்"
      ],
      [
        "து",
        "ம்"
      ],
      [
        "ையி",
        "னர்"
      ],
      [
        "ண்ட",
        "்"
      ],
      [
        "நக",
        "ரில்"
      ],
      [
        "தி",
        "ர"
      ],
      [
        "க",
        "ில்"
      ],
      [
        "ஈடு",
        "பட்டு"
      ],
      [
        "ஆ",
        "ட்சி"
      ],
      [
        "நிர்வாகி",
        "கள்"
      ],
      [
        "ர",
        "க"
      ],
      [
        "தொட",
        "ங்கி"
      ],
      [
        "கை",
        "ப்ப"
      ],
      [
        "அ",
        "ல"
      ],
      [
        "பட",
        "த்தில்"
      ],
      [
        "மாநில",
        "ம்"
      ],
      [
        "அல்ல",
        "து"
      ],
      [
        "அனு",
        "ப்ப"
      ],
      [
        "ைய",
        "ான"
      ],
      [
        "ண",
        "்ப"
      ],
      [
        "எதிர்",
        "ப்பு"
      ],
      [
        "ந்து",
        "ள்ளது"
      ],
      [
        "ட்டி",
        "ன்"
      ],
      [
        "ஸ்த",
        "ி"
      ],
      [
        "ன",
        "ிய"
      ],
      [
        "ற்ற",
        "ை"
      ],
      [
        "இன்",
        "ஸ்ப"
      ],
      [
        "தொ",
        "ழில்"
      ],
      [
        "பக்த",
        "ர்கள்"
      ],
      [
        "இ",
        "ழ"
      ],
      [
        "நடைபெற",
        "ும்"
      ],
      [
        "ல்",
        "மா"
      ],
      [
        "இதற்க",
        "ி"
      ],
      [
        "ய",
        "ார்"
      ],
      [
        "கோ",
        "வை"
      ],
      [
        "கொ",
        "டுக்க"
      ],
      [
        "மி",
        "ர"
      ],
      [
        "ப",
        "ள்ள"
      ],
      [
        "ன்",
        "ஸ்"
      ],
      [
        "ற்ற",
        "ிய"
      ],
      [
        "ப",
        "டை"
      ],
      [
        "நா",
        "ட்டு"
      ],
      [
        "வ",
        "ியா"
      ],
      [
        "கு",
        "வி"
      ],
      [
        "தக",
        "வல"
      ],
      [
        "க",
        "லை"
      ],
      [
        "மருத்துவமனை",
        "க்கு"
      ],
      [
        "அர",
        "சின்"
      ],
      [
        "ொ",
        "லை"
      ],
      [
        "கு",
        "ட"
      ],
      [
        "சினிமா",
        "ரீ"
      ],
      [
        "அ",
        "ண்ணா"
      ],
      [
        "தெரிய",
        "வந்தது"
      ],
      [
        "மைய",
        "ாக"
      ],
      [
        "சில",
        "ர்"
      ],
      [
        "பறி",
        "முதல்"
      ],
      [
        "பகு",
        "தியை"
      ],
      [
        "ஆலோ",
        "சனை"
      ],
      [
        "ப்ப",
        "ூர்"
      ],
      [
        "ந",
        "டிக்க"
      ],
      [
        "பாகிஸ்த",
        "ான்"
      ],
      [
        "ச",
        "க"
      ],
      [
        "இ",
        "ன்ன"
      ],
      [
        "வர",
        "ாக"
      ],
      [
        "அலுவல",
        "க"
      ],
      [
        "ச",
        "ம"
      ],
      [
        "ழ",
        "ல்"
      ],
      [
        "எம்",
        "பி"
      ],
      [
        "த",
        "டு"
      ],
      [
        "கொ",
        "டு"
      ],
      [
        "க",
        "ழி"
      ],
      [
        "இர",
        "ண்டு"
      ],
      [
        "ந்தி",
        "ரன்"
      ],
      [
        "ஆ",
        "ஜ"
      ],
      [
        "ம",
        "கா"
      ],
      [
        "பல",
        "ர்"
      ],
      [
        "கு",
        "ண்டு"
      ],
      [
        "தீவிர",
        "வாதி"
      ],
      [
        "ளு",
        "மன்ற"
      ],
      [
        "வரு",
        "கின்றன"
      ],
      [
        "செய்ய",
        "ப்பட்டது"
      ],
      [
        "க்கு",
        "ள்"
      ],
      [
        "நீதிமன்ற",
        "த்தில்"
      ],
      [
        "வி",
        "ரி"
      ],
      [
        "தற்க",
        "ொலை"
      ],
      [
        "அதிகா",
        "லை"
      ],
      [
        "இய",
        "க்க"
      ],
      [
        "மீ",
        "ன்"
      ],
      [
        "தோ",
        "ல்"
      ],
      [
        "ள",
        "வில்"
      ],
      [
        "ா",
        "லும்"
      ],
      [
        "க",
        "டி"
      ],
      [
        "க்கோ",
        "ட்டை"
      ],
      [
        "கோர்",
        "ட்"
      ],
      [
        "சி",
        "றை"
      ],
      [
        "பிர",
        "ே"
      ],
      [
        "இது",
        "வரை"
      ],
      [
        "சென்ற",
        "ார்"
      ],
      [
        "ஊ",
        "ராட்சி"
      ],
      [
        "மது",
        "ரை"
      ],
      [
        "போ",
        "ல"
      ],
      [
        "ப",
        "ந்து"
      ],
      [
        "நா",
        "டா"
      ],
      [
        "ம",
        "க"
      ],
      [
        "ரு",
        "க்க"
      ],
      [
        "கண்கா",
        "ணி"
      ],
      [
        "வ",
        "தால்"
      ],
      [
        "வா",
        "ரிய"
      ],
      [
        "இட",
        "த்தில்"
      ],
      [
        "த",
        "ப்பி"
      ],
      [
        "வார்த்த",
        "ை"
      ],
      [
        "திரு",
        "ச்சி"
      ],
      [
        "இ",
        "தே"
      ],
      [
        "வ",
        "தற்கு"
      ],
      [
        "ராஜ",
        "ா"
      ],
      [
        "அள",
        "வில்"
      ],
      [
        "த்த",
        "க்க"
      ],
      [
        "சே",
        "ர்க்க"
      ],
      [
        "வச",
        "தி"
      ],
      [
        "ம",
        "ில்"
      ],
      [
        "அதி",
        "ர"
      ],
      [
        "ர",
        "ல்"
      ],
      [
        "வா",
        "ங்கி"
      ],
      [
        "ஹ",
        "ா"
      ],
      [
        "பே",
        "ச"
      ],
      [
        "உள்ள",
        "ார்"
      ],
      [
        "எ",
        "ண்ண"
      ],
      [
        "ஆ",
        "ட்ச"
      ],
      [
        "சே",
        "க"
      ],
      [
        "சந்தி",
        "த்து"
      ],
      [
        "சினிமாரீ",
        "ல்மா"
      ],
      [
        "அ",
        "ணை"
      ],
      [
        "விட்ட",
        "னர்"
      ],
      [
        "வ",
        "லை"
      ],
      [
        "ையா",
        "ள"
      ],
      [
        "கள",
        "ாக"
      ],
      [
        "தயா",
        "ரி"
      ],
      [
        "ந",
        "ண்ப"
      ],
      [
        "பா",
        "க்கம்"
      ],
      [
        "ியு",
        "டன்"
      ],
      [
        "லா",
        "மல்"
      ],
      [
        "ப",
        "த"
      ],
      [
        "நாடா",
        "ளுமன்ற"
      ],
      [
        "வி",
        "ஷ"
      ],
      [
        "அ",
        "ங்கி"
      ],
      [
        "ஆ",
        "ண்ட"
      ],
      [
        "ஊழிய",
        "ர்கள்"
      ],
      [
        "பெ",
        "ங்கள"
      ],
      [
        "வ",
        "ையில்"
      ],
      [
        "ள்ள",
        "தாக"
      ],
      [
        "ா",
        "மல்"
      ],
      [
        "கோர்",
        "ட்டில்"
      ],
      [
        "ர்கள",
        "ும்"
      ],
      [
        "விவசாயி",
        "கள்"
      ],
      [
        "முன",
        "்தி"
      ],
      [
        "இ",
        "ளை"
      ],
      [
        "ி",
        "ற"
      ],
      [
        "வா",
        "க்க"
      ],
      [
        "ம",
        "கள்"
      ],
      [
        "தெ",
        "ன்"
      ],
      [
        "அ",
        "ற"
      ],
      [
        "பா",
        "டு"
      ],
      [
        "வ",
        "ளர்"
      ],
      [
        "ஸ்டா",
        "லின்"
      ],
      [
        "திட்ட",
        "மி"
      ],
      [
        "கூறிய",
        "தாவது"
      ],
      [
        "தமிழக",
        "ம்த"
      ],
      [
        "தெரிவி",
        "த்தார்"
      ],
      [
        "பிரி",
        "வு"
      ],
      [
        "செல்",
        "போ"
      ],
      [
        "அமெரிக்க",
        "ா"
      ],
      [
        "சந்த",
        "ே"
      ],
      [
        "அவ",
        "ர்களை"
      ],
      [
        "இளை",
        "ஞ"
      ],
      [
        "ிய",
        "ம்"
      ],
      [
        "கீ",
        "ழ"
      ],
      [
        "முன்தி",
        "னம்"
      ],
      [
        "பி",
        "ள"
      ],
      [
        "க",
        "த"
      ],
      [
        "கொ",
        "ள"
      ],
      [
        "மே",
        "ற்கு"
      ],
      [
        "த்த",
        "ே"
      ],
      [
        "ரயில்",
        "வே"
      ],
      [
        "போலீ",
        "சில்"
      ],
      [
        "அடை",
        "ந்த"
      ],
      [
        "கி",
        "ரிக்க"
      ],
      [
        "பயணி",
        "கள்"
      ],
      [
        "ன",
        "ே"
      ],
      [
        "குறிப்பி",
        "ட"
      ],
      [
        "நி",
        "னை"
      ],
      [
        "க",
        "வுன்"
      ],
      [
        "டெ",
        "ல்ல"
      ],
      [
        "போட்ட",
        "ியில்"
      ],
      [
        "வ",
        "தில்"
      ],
      [
        "பயி",
        "ற்சி"
      ],
      [
        "மசா",
        "லா"
      ],
      [
        "நே",
        "ற்றி"
      ],
      [
        "இல்",
        "லாத"
      ],
      [
        "காஞ்சி",
        "புரம்"
      ],
      [
        "தா",
        "ப"
      ],
      [
        "பே",
        "சிய"
      ],
      [
        "பே",
        "ட்டி"
      ],
      [
        "ஒ",
        "ரே"
      ],
      [
        "கூட்ட",
        "த்தில்"
      ],
      [
        "த்து",
        "ள்ளது"
      ],
      [
        "க",
        "வர்"
      ],
      [
        "குடி",
        "நீர்"
      ],
      [
        "வா",
        "த"
      ],
      [
        "வா",
        "ல்"
      ],
      [
        "என",
        "து"
      ],
      [
        "்த",
        "்த"
      ],
      [
        "உயி",
        "ரி"
      ],
      [
        "ராஜ",
        "ன்"
      ],
      [
        "ஆ",
        "தர"
      ],
      [
        "எதி",
        "ராக"
      ],
      [
        "ஆ",
        "வடி"
      ],
      [
        "த்தி",
        "லும்"
      ],
      [
        "வழ",
        "ங்கி"
      ],
      [
        "ஏற்ப",
        "ாடு"
      ],
      [
        "பரபர",
        "ப்பை"
      ],
      [
        "ச",
        "ாக"
      ],
      [
        "ஆ",
        "ன"
      ],
      [
        "கா",
        "ஷ்"
      ],
      [
        "ப",
        "தவ"
      ],
      [
        "ரு",
        "க்கும்"
      ],
      [
        "ராஜ",
        "ே"
      ],
      [
        "கள",
        "ுடன்"
      ],
      [
        "வகு",
        "ப்பு"
      ],
      [
        "விசா",
        "ரித்து"
      ],
      [
        "வ",
        "தை"
      ],
      [
        "வ",
        "ோ"
      ],
      [
        "தொடர்",
        "பு"
      ],
      [
        "அ",
        "ம"
      ],
      [
        "மா",
        "ள்"
      ],
      [
        "செய்ய",
        "ும்"
      ],
      [
        "நேற்றி",
        "ரவு"
      ],
      [
        "அறி",
        "க்கை"
      ],
      [
        "ப",
        "த்தில்"
      ],
      [
        "ச",
        "ட"
      ],
      [
        "பா",
        "ன"
      ],
      [
        "இன்ஸ்ப",
        "ெக்டர்"
      ],
      [
        "ட்",
        "ரோ"
      ],
      [
        "ச",
        "மா"
      ],
      [
        "கி",
        "லோ"
      ],
      [
        "இயக்கு",
        "னர்"
      ],
      [
        "ளி",
        "லும்"
      ],
      [
        "ம",
        "றை"
      ],
      [
        "வ",
        "ிய"
      ],
      [
        "மணிய",
        "ளவில்"
      ],
      [
        "இது",
        "பற்றி"
      ],
      [
        "முடியா",
        "து"
      ],
      [
        "பா",
        "ர"
      ],
      [
        "வரு",
        "மான"
      ],
      [
        "யி",
        "ன்"
      ],
      [
        "ஈடுபட்ட",
        "னர்"
      ],
      [
        "இரு",
        "ப்ப"
      ],
      [
        "த்த",
        "ன"
      ],
      [
        "வே",
        "ண்டிய"
      ],
      [
        "விப",
        "த்து"
      ],
      [
        "விற்ப",
        "னை"
      ],
      [
        "மு",
        "த்து"
      ],
      [
        "பி",
        "ரா"
      ],
      [
        "ர",
        "யி"
      ],
      [
        "ப்ப",
        "ம்"
      ],
      [
        "சி",
        "ன்ன"
      ],
      [
        "அளி",
        "க்க"
      ],
      [
        "தலை",
        "வர்கள்"
      ],
      [
        "முடிய",
        "ும்"
      ],
      [
        "எ",
        "டுத்த"
      ],
      [
        "ம்ப",
        "ரம்"
      ],
      [
        "இ",
        "டை"
      ],
      [
        "உ",
        "ச்ச"
      ],
      [
        "கரு",
        "ணா"
      ],
      [
        "ையி",
        "லான"
      ],
      [
        "கரு",
        "த்து"
      ],
      [
        "ியு",
        "ள்ளனர்"
      ],
      [
        "ன",
        "ுக்கு"
      ],
      [
        "உறுப்பி",
        "ன"
      ],
      [
        "ரு",
        "டன்"
      ],
      [
        "லட்சு",
        "மி"
      ],
      [
        "ந்த",
        "ை"
      ],
      [
        "டிரை",
        "வர்"
      ],
      [
        "அ",
        "டிக்க"
      ],
      [
        "வு",
        "டன்"
      ],
      [
        "ஸ்ட",
        "ே"
      ],
      [
        "முய",
        "ற்சி"
      ],
      [
        "வா",
        "ர்கள்"
      ],
      [
        "க்கொ",
        "ண்ட"
      ],
      [
        "தாக்கு",
        "தல்"
      ],
      [
        "வெ",
        "ங்க"
      ],
      [
        "தி",
        "ரி"
      ],
      [
        "ட",
        "ையில்"
      ],
      [
        "நிகழ",
        "்ச்சி"
      ],
      [
        "க்க",
        "ள"
      ],
      [
        "ஆத",
        "ரவு"
      ],
      [
        "து",
        "ப்பா"
      ],
      [
        "ிரு",
        "ந்தது"
      ],
      [
        "மீன",
        "வர்கள்"
      ],
      [
        "ட",
        "ோ"
      ],
      [
        "ர",
        "ங்க"
      ],
      [
        "க்க",
        "ே"
      ],
      [
        "க",
        "வு"
      ],
      [
        "வ",
        "க்கீ"
      ],
      [
        "ஸ்",
        "வர"
      ],
      [
        "வா",
        "ங்க"
      ],
      [
        "உல",
        "கம்"
      ],
      [
        "மா",
        "று"
      ],
      [
        "முக",
        "ம்"
      ],
      [
        "த்தக்க",
        "து"
      ],
      [
        "பரி",
        "தாப"
      ],
      [
        "ப்பட",
        "வில்லை"
      ],
      [
        "ஒ",
        "வ்"
      ],
      [
        "ியி",
        "ருந்த"
      ],
      [
        "கொள்ள",
        "ைய"
      ],
      [
        "இ",
        "றுதி"
      ],
      [
        "அரசு",
        "க்கு"
      ],
      [
        "கோயி",
        "லில்"
      ],
      [
        "ஒ",
        "ன்று"
      ],
      [
        "நடி",
        "கை"
      ],
      [
        "ம",
        "த"
      ],
      [
        "எ",
        "ண்ணி"
      ],
      [
        "அ",
        "டித்து"
      ],
      [
        "அளி",
        "த்த"
      ],
      [
        "வ",
        "ொரு"
      ],
      [
        "பு",
        "ரி"
      ],
      [
        "க",
        "டு"
      ],
      [
        "கிரிக்க",
        "ெட்"
      ],
      [
        "மும்",
        "பை"
      ],
      [
        "கல",
        "ெக்டர்"
      ],
      [
        "ல",
        "்தான்"
      ],
      [
        "நிய",
        "மி"
      ],
      [
        "இன்ன",
        "ும்"
      ],
      [
        "பே",
        "ட்டை"
      ],
      [
        "வேட்பா",
        "ளர்"
      ],
      [
        "கே",
        "ள்"
      ],
      [
        "சம்ப",
        "ந்த"
      ],
      [
        "எ",
        "டு"
      ],
      [
        "ஓ",
        "ட்ட"
      ],
      [
        "ந",
        "ூ"
      ],
      [
        "களி",
        "லும்"
      ],
      [
        "டெல்ல",
        "ியில்"
      ],
      [
        "விரை",
        "ந்து"
      ],
      [
        "மூ",
        "க"
      ],
      [
        "நிலைய",
        "ம்"
      ],
      [
        "விசாரண",
        "ையில்"
      ],
      [
        "ரோ",
        "டு"
      ],
      [
        "உற",
        "வின"
      ],
      [
        "போ",
        "ட்டு"
      ],
      [
        "புது",
        "டெல்லி"
      ],
      [
        "மின்",
        "சா"
      ],
      [
        "இ",
        "வர்கள்"
      ],
      [
        "ப்பி",
        "ர"
      ],
      [
        "கா",
        "ரில்"
      ],
      [
        "ட",
        "ியில்"
      ],
      [
        "பா",
        "த்"
      ],
      [
        "த்த",
        "ொ"
      ],
      [
        "க்க",
        "ண"
      ],
      [
        "கா",
        "வல"
      ],
      [
        "வை",
        "த்தனர்"
      ],
      [
        "பு",
        "ர"
      ],
      [
        "திரு",
        "த்த"
      ],
      [
        "்த",
        "ா"
      ],
      [
        "செ",
        "ங்கல்"
      ],
      [
        "க",
        "ைய"
      ],
      [
        "பல",
        "்க"
      ],
      [
        "சட்ட",
        "மன்ற"
      ],
      [
        "மு",
        "கா"
      ],
      [
        "திரு",
        "ம்ப"
      ],
      [
        "க்க",
        "ழ"
      ],
      [
        "என",
        "க்கு"
      ],
      [
        "உட",
        "்பட"
      ],
      [
        "ச",
        "மீ"
      ],
      [
        "வா",
        "ள"
      ],
      [
        "அமை",
        "க்க"
      ],
      [
        "வட்ட",
        "ா"
      ],
      [
        "ர",
        "வி"
      ],
      [
        "வழக்கு",
        "ப்பதிவு"
      ],
      [
        "உ",
        "ற்ப"
      ],
      [
        "பே",
        "ரும்"
      ],
      [
        "மோ",
        "ச"
      ],
      [
        "த்த",
        "ியா"
      ],
      [
        "அரு",
        "கில்"
      ],
      [
        "ஸ்தி",
        "ரே"
      ],
      [
        "க",
        "ண்ண"
      ],
      [
        "த்த",
        "ல்"
      ],
      [
        "ப",
        "க்க"
      ],
      [
        "ரூ",
        "பாய்"
      ],
      [
        "மோ",
        "கன்"
      ],
      [
        "எ",
        "ரி"
      ],
      [
        "பரி",
        "சோதனை"
      ],
      [
        "வே",
        "ண்டு"
      ],
      [
        "தெரிவித்து",
        "ள்ளார்"
      ],
      [
        "உறு",
        "தி"
      ],
      [
        "கமி",
        "ஷ"
      ],
      [
        "வே",
        "ன்"
      ],
      [
        "கேள்",
        "வி"
      ],
      [
        "ப",
        "லி"
      ],
      [
        "நா",
        "தன்"
      ],
      [
        "ச",
        "ல்"
      ],
      [
        "தெரி",
        "கிறது"
      ],
      [
        "ியு",
        "ள்ள"
      ],
      [
        "பொரு",
        "ளா"
      ],
      [
        "ஜ",
        "ீ"
      ],
      [
        "கொள்ள",
        "ை"
      ],
      [
        "்கள",
        "ுக்கு"
      ],
      [
        "ஓ",
        "டி"
      ],
      [
        "வை",
        "க்க"
      ],
      [
        "உரி",
        "ம"
      ],
      [
        "வ",
        "தற்காக"
      ],
      [
        "வா",
        "ர"
      ],
      [
        "சே",
        "லம்"
      ],
      [
        "க",
        "ர"
      ],
      [
        "அ",
        "ம்ப"
      ],
      [
        "கள",
        "ையும்"
      ],
      [
        "ஒவ்",
        "வொரு"
      ],
      [
        "சு",
        "ந்த"
      ],
      [
        "ம",
        "னி"
      ],
      [
        "அதிர்",
        "ச்ச"
      ],
      [
        "தற்க",
        "ான"
      ],
      [
        "பே",
        "ரை"
      ],
      [
        "து",
        "ற"
      ],
      [
        "அ",
        "ப"
      ],
      [
        "ந",
        "ப"
      ],
      [
        "ப்ப",
        "ந்த"
      ],
      [
        "பேசி",
        "னார்"
      ],
      [
        "நடைபெற்ற",
        "து"
      ],
      [
        "ற",
        "ா"
      ],
      [
        "டிய",
        "ை"
      ],
      [
        "த",
        "ரு"
      ],
      [
        "ர்க",
        "ா"
      ],
      [
        "விரை",
        "வில்"
      ],
      [
        "வு",
        "ட்"
      ],
      [
        "இங்கி",
        "லாந்து"
      ],
      [
        "சிபி",
        "ஐ"
      ],
      [
        "பொருட",
        "்கள்"
      ],
      [
        "ியி",
        "டம்"
      ],
      [
        "மக்கள",
        "ுக்கு"
      ],
      [
        "உண",
        "வு"
      ],
      [
        "மூ",
        "ர்த்தி"
      ],
      [
        "ஏ",
        "ற்று"
      ],
      [
        "ச",
        "மூக"
      ],
      [
        "ந்தி",
        "ரா"
      ],
      [
        "வலியுறு",
        "த்தி"
      ],
      [
        "பணி",
        "கள்"
      ],
      [
        "இ",
        "ளம்"
      ],
      [
        "கா",
        "ந்தி"
      ],
      [
        "உ",
        "தவ"
      ],
      [
        "வே",
        "ல்"
      ],
      [
        "மடை",
        "ந்த"
      ],
      [
        "பா",
        "ளைய"
      ],
      [
        "சா",
        "ல"
      ],
      [
        "வே",
        "க"
      ],
      [
        "நெ",
        "டு"
      ],
      [
        "அவ",
        "ர்கள"
      ],
      [
        "லா",
        "ல்"
      ],
      [
        "சி",
        "லை"
      ],
      [
        "கூற",
        "ியுள்ளார்"
      ],
      [
        "போ",
        "ர்"
      ],
      [
        "சட்ட",
        "ச"
      ],
      [
        "ட்ட",
        "ார்"
      ],
      [
        "ிய",
        "ோ"
      ],
      [
        "ரு",
        "ப"
      ],
      [
        "தி",
        "க"
      ],
      [
        "ச",
        "வு"
      ],
      [
        "அமை",
        "ப்பு"
      ],
      [
        "பல்க",
        "லை"
      ],
      [
        "டிய",
        "ே"
      ],
      [
        "ப்பட்ட",
        "ன"
      ],
      [
        "ப",
        "ன்"
      ],
      [
        "அடி",
        "ப்பட"
      ],
      [
        "குறிப்பிட",
        "த்தக்கது"
      ],
      [
        "இ",
        "ணைய"
      ],
      [
        "வரு",
        "க்கும்"
      ],
      [
        "முரு",
        "கன்"
      ],
      [
        "மீ",
        "ட்டு"
      ],
      [
        "பா",
        "ரா"
      ],
      [
        "காரண",
        "ம்"
      ],
      [
        "உ",
        "ரிய"
      ],
      [
        "நீதிமன்ற",
        "ம்"
      ],
      [
        "சி",
        "க்கி"
      ],
      [
        "ொ",
        "ட்டி"
      ],
      [
        "அ",
        "ரி"
      ],
      [
        "ட்ட",
        "னர்"
      ],
      [
        "முற",
        "ையாக"
      ],
      [
        "கீ",
        "ழ்"
      ],
      [
        "கடை",
        "சி"
      ],
      [
        "நிறை",
        "வேற்ற"
      ],
      [
        "பிற",
        "ந்த"
      ],
      [
        "த",
        "தால்"
      ],
      [
        "மைய",
        "ான"
      ],
      [
        "ன",
        "்க"
      ],
      [
        "பாதி",
        "க்கப்பட்ட"
      ],
      [
        "என்ப",
        "தை"
      ],
      [
        "ஆயி",
        "ரத்து"
      ],
      [
        "அதிர்",
        "ச்சி"
      ],
      [
        "பண",
        "த்தை"
      ],
      [
        "சதவீ",
        "த"
      ],
      [
        "வேட்பா",
        "ள"
      ],
      [
        "குழந்தை",
        "கள்"
      ],
      [
        "டி",
        "வி"
      ],
      [
        "ர",
        "த்த"
      ],
      [
        "க்க",
        "வில்லை"
      ],
      [
        "ட",
        "ீ"
      ],
      [
        "அத",
        "ன்படி"
      ],
      [
        "்து",
        "றை"
      ],
      [
        "ந",
        "ள்ளி"
      ],
      [
        "இதற்க",
        "ாக"
      ],
      [
        "இ",
        "ள"
      ],
      [
        "கொ",
        "ள்"
      ],
      [
        "ட",
        "ர்"
      ],
      [
        "முற",
        "ையில்"
      ],
      [
        "பல",
        "த்த"
      ],
      [
        "நா",
        "ட்டில்"
      ],
      [
        "த",
        "ஞ்ச"
      ],
      [
        "பயன்ப",
        "டுத்த"
      ],
      [
        "ப",
        "ந்த"
      ],
      [
        "ஒ",
        "ப்பந்த"
      ],
      [
        "அனை",
        "வரும்"
      ],
      [
        "நா",
        "ங்கள்"
      ],
      [
        "ஆயி",
        "ர"
      ],
      [
        "ப்பா",
        "ளர்"
      ],
      [
        "ஆ",
        "யு"
      ],
      [
        "ந",
        "ம்பி"
      ],
      [
        "வர",
        "வே"
      ],
      [
        "வீர",
        "ர்"
      ],
      [
        "கூடு",
        "தல்"
      ],
      [
        "இரு",
        "க்கிறது"
      ],
      [
        "மாவட்ட",
        "ங்களில்"
      ],
      [
        "அண",
        "ு"
      ],
      [
        "து",
        "வ"
      ],
      [
        "என்ப",
        "தால்"
      ],
      [
        "ங்கள",
        "ும்"
      ],
      [
        "சி",
        "த"
      ],
      [
        "தி",
        "ட்டம்"
      ],
      [
        "உத்த",
        "ரவு"
      ],
      [
        "்ப",
        "ா"
      ],
      [
        "சு",
        "வா"
      ],
      [
        "தக",
        "ரா"
      ],
      [
        "தமிழ்",
        "நாடு"
      ],
      [
        "ப",
        "ூர்"
      ],
      [
        "ப",
        "தில்"
      ],
      [
        "ம",
        "ய"
      ],
      [
        "ு",
        "க்கான"
      ],
      [
        "செல்",
        "வ"
      ],
      [
        "த",
        "ங்கள்"
      ],
      [
        "வே",
        "லூர்"
      ],
      [
        "கே",
        "ப்ட"
      ],
      [
        "பே",
        "சு"
      ],
      [
        "ஏற்ப",
        "டும்"
      ],
      [
        "அதிக",
        "ரித்து"
      ],
      [
        "மிக",
        "வும்"
      ],
      [
        "த",
        "டுக்க"
      ],
      [
        "திய",
        "ம்"
      ],
      [
        "வா",
        "க்கா"
      ],
      [
        "கோ",
        "ரி"
      ],
      [
        "தொ",
        "குதியில்"
      ],
      [
        "கட்ச",
        "ியின்"
      ],
      [
        "சு",
        "ப்"
      ],
      [
        "பேச்சு",
        "வார்த்தை"
      ],
      [
        "கருணா",
        "நிதி"
      ],
      [
        "ற்ப",
        "ு"
      ],
      [
        "அதி",
        "பர்"
      ],
      [
        "த்தி",
        "ரி"
      ],
      [
        "்கி",
        "ன்றனர்"
      ],
      [
        "கர்நாட",
        "க"
      ],
      [
        "தொடங்க",
        "ியது"
      ],
      [
        "த",
        "குதி"
      ],
      [
        "த்து",
        "ள்ளார்"
      ],
      [
        "போராட்ட",
        "த்தில்"
      ],
      [
        "ஒ",
        "ப்பு"
      ],
      [
        "ப",
        "ற"
      ],
      [
        "சு",
        "ற்றி"
      ],
      [
        "அப்ப",
        "குதியில்"
      ],
      [
        "க்க",
        "ளை"
      ],
      [
        "செய்த",
        "ி"
      ],
      [
        "ைய",
        "ொட்டி"
      ],
      [
        "செய்ய",
        "ப்பட்டுள்ளது"
      ],
      [
        "வெளியி",
        "ட"
      ],
      [
        "ப்பட்ட",
        "னர்"
      ],
      [
        "ைய",
        "ால்"
      ],
      [
        "மா",
        "ற"
      ],
      [
        "்க",
        "்க"
      ],
      [
        "கட்டி",
        "ட"
      ],
      [
        "த",
        "லி"
      ],
      [
        "இட",
        "த்துக்கு"
      ],
      [
        "ன",
        "ியா"
      ],
      [
        "த",
        "ரா"
      ],
      [
        "பு",
        "ழல்"
      ],
      [
        "ப",
        "ம்"
      ],
      [
        "செங்கல்",
        "பட்டு"
      ],
      [
        "கொண்ட",
        "ா"
      ],
      [
        "ம்ப",
        "ர்"
      ],
      [
        "முக",
        "ஸ்டாலின்"
      ],
      [
        "ஏற்ப",
        "டுத்தி"
      ],
      [
        "எ",
        "க்"
      ],
      [
        "ப்ப",
        "ன்"
      ],
      [
        "பெரும்",
        "பா"
      ],
      [
        "கட்டு",
        "ப்பா"
      ],
      [
        "வந்து",
        "ள்ளது"
      ],
      [
        "சந்தி",
        "ர"
      ],
      [
        "ப",
        "ட்ச"
      ],
      [
        "அதிர",
        "டி"
      ],
      [
        "ங்கள",
        "து"
      ],
      [
        "அ",
        "ன்"
      ],
      [
        "ங்க",
        "ளிலும்"
      ],
      [
        "பா",
        "ரி"
      ],
      [
        "மேற்கொ",
        "ள்ள"
      ],
      [
        "நடி",
        "கர்"
      ],
      [
        "வெள",
        "ியாக"
      ],
      [
        "அலுவல",
        "கத்தில்"
      ],
      [
        "வள",
        "ாக"
      ],
      [
        "எஸ்",
        "ஐ"
      ],
      [
        "ண்",
        "மை"
      ],
      [
        "அறி",
        "க்க"
      ],
      [
        "நடை",
        "பெறு"
      ],
      [
        "செய்த",
        "து"
      ],
      [
        "ற்ற",
        "ம்"
      ],
      [
        "ப்பு",
        "க்கு"
      ],
      [
        "க",
        "ம்ப"
      ],
      [
        "மு",
        "திக"
      ],
      [
        "எ",
        "ச்ச"
      ],
      [
        "எ",
        "து"
      ],
      [
        "ராக",
        "ு"
      ],
      [
        "எம்எல்ஏ",
        "க்கள்"
      ],
      [
        "வாலி",
        "பர்"
      ],
      [
        "ரா",
        "ட்ச"
      ],
      [
        "சு",
        "கா"
      ],
      [
        "திரு",
        "ம்பி"
      ],
      [
        "கா",
        "ரை"
      ],
      [
        "கா",
        "ட்சி"
      ],
      [
        "நாட்கள",
        "ுக்கு"
      ],
      [
        "கொண்ட",
        "ார்"
      ],
      [
        "க",
        "ரன்"
      ],
      [
        "பா",
        "பு"
      ],
      [
        "ஏற்படுத்த",
        "ியுள்ளது"
      ],
      [
        "ீ",
        "ஸ்"
      ],
      [
        "என்ப",
        "வர்"
      ],
      [
        "தீ",
        "ய"
      ],
      [
        "செல்",
        "வம்"
      ],
      [
        "ஆர்",
        "ப்பா"
      ],
      [
        "டா",
        "ஸ்"
      ],
      [
        "மா",
        "ற்று"
      ],
      [
        "கா",
        "ர்த்தி"
      ],
      [
        "போ",
        "ன"
      ],
      [
        "போ",
        "ட"
      ],
      [
        "ியி",
        "னர்"
      ],
      [
        "மாற்ற",
        "ம்"
      ],
      [
        "பார்",
        "வ"
      ],
      [
        "சி",
        "றி"
      ],
      [
        "இப்ப",
        "ோது"
      ],
      [
        "தண்ட",
        "னை"
      ],
      [
        "பழ",
        "னி"
      ],
      [
        "ம",
        "ற"
      ],
      [
        "வ",
        "ரா"
      ],
      [
        "விக்க",
        "ெட்"
      ],
      [
        "கு",
        "மா"
      ],
      [
        "கூ",
        "டாது"
      ],
      [
        "மூ",
        "த்த"
      ],
      [
        "விரு",
        "து"
      ],
      [
        "தர",
        "ப்பில்"
      ],
      [
        "தலைம",
        "ையிலான"
      ],
      [
        "வீ",
        "ட்டு"
      ],
      [
        "அடிப்பட",
        "ையில்"
      ],
      [
        "ப்ப",
        "ூ"
      ],
      [
        "வ",
        "ற்றை"
      ],
      [
        "ஆ",
        "ஸ்திரே"
      ],
      [
        "து",
        "ரை"
      ],
      [
        "ள்ள",
        "ு"
      ],
      [
        "பட்ட",
        "ா"
      ],
      [
        "ஆஸ்திரே",
        "ல"
      ],
      [
        "கா",
        "ட்டி"
      ],
      [
        "மொ",
        "த்தம்"
      ],
      [
        "சே",
        "கர்"
      ],
      [
        "ங்க",
        "ோ"
      ],
      [
        "பிரசா",
        "ரம்"
      ],
      [
        "ற்க",
        "ும்"
      ],
      [
        "ப்பா",
        "க்கம்"
      ],
      [
        "பட்ட",
        "ிய"
      ],
      [
        "அடிக்க",
        "டி"
      ],
      [
        "ப",
        "வு"
      ],
      [
        "துப்பா",
        "க்கி"
      ],
      [
[...]
